{
  "version": "1.0",
  "truncation": null,
  "padding": null,
  "added_tokens": [],
  "normalizer": null,
  "pre_tokenizer": {
    "type": "Metaspace",
    "replacement": "▁",
    "prepend_scheme": "always",
    "split": true
  },
  "post_processor": null,
  "decoder": {
    "type": "Metaspace",
    "replacement": "▁",
    "prepend_scheme": "always",
    "split": true
  },
  "model": {
    "type": "BPE",
    "dropout": null,
    "unk_token": null,
    "continuing_subword_prefix": null,
    "end_of_word_suffix": null,
    "fuse_unk": false,
    "byte_fallback": true,
    "ignore_merges": false,
    "vocab": {
      "\t": 0,
      "\n": 1,
      "\r": 2,
      "!": 3,
      "\"": 4,
      "#": 5,
      "$": 6,
      "%": 7,
      "'": 8,
      "(": 9,
      ")": 10,
      "+": 11,
      ",": 12,
      "-": 13,
      ".": 14,
      "/": 15,
      "0": 16,
      "1": 17,
      "2": 18,
      "3": 19,
      "4": 20,
      "8": 21,
      ":": 22,
      "<": 23,
      "=": 24,
      ">": 25,
      "@": 26,
      "A": 27,
      "B": 28,
      "C": 29,
      "D": 30,
      "E": 31,
      "F": 32,
      "G": 33,
      "H": 34,
      "I": 35,
      "K": 36,
      "L": 37,
      "M": 38,
      "N": 39,
      "O": 40,
      "P": 41,
      "R": 42,
      "S": 43,
      "T": 44,
      "U": 45,
      "V": 46,
      "W": 47,
      "X": 48,
      "Y": 49,
      "Z": 50,
      "[": 51,
      "]": 52,
      "_": 53,
      "a": 54,
      "b": 55,
      "c": 56,
      "d": 57,
      "e": 58,
      "f": 59,
      "g": 60,
      "h": 61,
      "i": 62,
      "j": 63,
      "k": 64,
      "l": 65,
      "m": 66,
      "n": 67,
      "o": 68,
      "p": 69,
      "r": 70,
      "s": 71,
      "t": 72,
      "u": 73,
      "v": 74,
      "w": 75,
      "x": 76,
      "y": 77,
      "z": 78,
      "{": 79,
      "}": 80,
      "ó": 81,
      "▁": 82,
      "\r\n": 83,
      "▁\t": 84,
      "le": 85,
      "re": 86,
      "de": 87,
      "in": 88,
      "se": 89,
      "ta": 90,
      "on": 91,
      "t_": 92,
      ")\r\n": 93,
      "he": 94,
      "▁\r\n": 95,
      "ble": 96,
      "te": 97,
      "or": 98,
      "table": 99,
      ":\r\n": 100,
      "co": 101,
      "▁t": 102,
      "▁=": 103,
      "▁f": 104,
      "ar": 105,
      "▁v": 106,
      "ro": 107,
      "un": 108,
      "ade": 109,
      "al": 110,
      "id": 111,
      "st": 112,
      "▁\t\t": 113,
      "col": 114,
      "ra": 115,
      "si": 116,
      "er": 117,
      "▁fun": 118,
      "ree": 119,
      "▁func": 120,
      "ader": 121,
      "▁-": 122,
      "header": 123,
      "set_": 124,
      "header_": 125,
      "▁the": 126,
      "ray": 127,
      "int": 128,
      "ze": 129,
      "size": 130,
      "▁->": 131,
      "fon": 132,
      "row": 133,
      "um": 134,
      "ox": 135,
      "yle": 136,
      "oid": 137,
      "▁void": 138,
      "▁void:\r\n": 139,
      "ce": 140,
      "▁_": 141,
      "pr": 142,
      "▁i": 143,
      "ree.": 144,
      "()": 145,
      "colum": 146,
      "column": 147,
      "▁\"": 148,
      "mo": 149,
      "ue": 150,
      "lec": 151,
      "selec": 152,
      "res": 153,
      "box": 154,
      "ck": 155,
      "style": 156,
      "stylebox": 157,
      "Ar": 158,
      "e_": 159,
      "Array": 160,
      "(\"": 161,
      "ad": 162,
      "ite": 163,
      "font_": 164,
      "Con": 165,
      "tree.": 166,
      "▁#": 167,
      "it": 168,
      "▁b": 169,
      "▁var": 170,
      "table_": 171,
      "if": 172,
      "lo": 173,
      "nd": 174,
      "iner": 175,
      "tainer": 176,
      "on_": 177,
      "Container": 178,
      "ut": 179,
      "ing": 180,
      "ted": 181,
      "ex": 182,
      "ver": 183,
      "▁\tif": 184,
      "stylebox_": 185,
      "ge": 186,
      "ne": 187,
      "color": 188,
      "▁is": 189,
      "s(": 190,
      "▁c": 191,
      "alue": 192,
      "print": 193,
      "\",": 194,
      "ll": 195,
      "po": 196,
      "tableContainer": 197,
      "set_header_": 198,
      "\")\r\n": 199,
      "over": 200,
      "t(": 201,
      "sed": 202,
      "com": 203,
      "cell": 204,
      "get_": 205,
      "var": 206,
      ":int": 207,
      "_b": 208,
      "as": 209,
      "th": 210,
      "dex": 211,
      "LI": 212,
      "im": 213,
      "lt": 214,
      "me_": 215,
      "ult": 216,
      "▁@": 217,
      "▁a": 218,
      "index": 219,
      "tableContainer.": 220,
      "CK": 221,
      "CLI": 222,
      "li": 223,
      "por": 224,
      "ring": 225,
      "mode": 226,
      "CLICK": 227,
      "()\r\n": 228,
      ":Array": 229,
      "ack": 230,
      "na": 231,
      "▁s": 232,
      "▁\tprint": 233,
      "result": 234,
      "bite": 235,
      "pres": 236,
      "the": 237,
      "ur": 238,
      "t_mode": 239,
      "expor": 240,
      "▁@expor": 241,
      "lick": 242,
      "ri": 243,
      "tur": 244,
      "▁p": 245,
      "▁w": 246,
      "▁de": 247,
      "remo": 248,
      "retur": 249,
      "array": 250,
      "selected": 251,
      "font_size": 252,
      "remov": 253,
      "return": 254,
      ".size": 255,
      "click": 256,
      "▁header_": 257,
      "▁row": 258,
      "▁\tvar": 259,
      "▁\ttableContainer.": 260,
      "▁\t\t\t": 261,
      "▁##": 262,
      "E_": 263,
      "St": 264,
      "ey": 265,
      "of": 266,
      "yte": 267,
      "▁\ttree.": 268,
      "de(\"": 269,
      "overri": 270,
      "CLICK_": 271,
      "theme_": 272,
      "remove_": 273,
      "override(\"": 274,
      "[column": 275,
      "_table": 276,
      "▁se": 277,
      "[column]": 278,
      "d_": 279,
      "ed": 280,
      "ol": 281,
      "ti": 282,
      "tit": 283,
      "▁[": 284,
      "▁\t\r\n": 285,
      "select_mode": 286,
      "pos": 287,
      ".size()": 288,
      "▁set": 289,
      "title": 290,
      "CE": 291,
      "able": 292,
      "om": 293,
      "relo": 294,
      "string": 295,
      "▁\t\treturn": 296,
      ".\r\n": 297,
      ":St": 298,
      "Table": 299,
      "gro": 300,
      "to": 301,
      "ton_": 302,
      "value": 303,
      "▁0": 304,
      "▁e": 305,
      "set_table_": 306,
      "▁_set_header_": 307,
      "columns": 308,
      "font_color": 309,
      "utton_": 310,
      "_button_": 311,
      "▁\tprints(": 312,
      "pressed": 313,
      "reload": 314,
      "key": 315,
      "mit": 316,
      "▁table": 317,
      "▁of": 318,
      "▁value": 319,
      "▁\t\ttree.": 320,
      "prim": 321,
      "add_": 322,
      "comprim": 323,
      "comprimid": 324,
      "(table": 325,
      "2i": 326,
      "LL": 327,
      "OW": 328,
      "ROW": 329,
      "Ve": 330,
      "ct": 331,
      "gn": 332,
      "de]": 333,
      "ter": 334,
      "or2i": 335,
      "code]": 336,
      "adena": 337,
      "idth": 338,
      "font": 339,
      "▁_on_": 340,
      "cell_": 341,
      ":Array[": 342,
      "▁@export": 343,
      "▁whe": 344,
      "ytes": 345,
      "CELL": 346,
      "▁value\r\n": 347,
      "Vect": 348,
      "Vector2i": 349,
      "(result": 350,
      "ON": 351,
      "con": 352,
      "pe": 353,
      "ont": 354,
      "▁tree.": 355,
      "▁==": 356,
      "sign": 357,
      "▁bite": 358,
      "ackgro": 359,
      "ackgroun": 360,
      "Box": 361,
      "gth": 362,
      "hi": 363,
      "ngth": 364,
      "ou": 365,
      "rue": 366,
      "sor": 367,
      "▁in": 368,
      "▁array": 369,
      "▁sign": 370,
      "length": 371,
      "yleBox": 372,
      ":int)": 373,
      "click_": 374,
      "override(\"title": 375,
      "string_": 376,
      "▁\t\treturn\r\n": 377,
      ":StyleBox": 378,
      "▁when": 379,
      "▁signal": 380,
      "override(\"title_button_": 381,
      "(value": 382,
      ".con": 383,
      "PR": 384,
      "]\r\n": 385,
      "at": 386,
      "ct(": 387,
      "for": 388,
      "tree": 389,
      "ust": 390,
      "▁n": 391,
      "▁u": 392,
      "▁key": 393,
      "▁\t#": 394,
      "set_table": 395,
      "nect(": 396,
      "comprimido": 397,
      ".connect(": 398,
      "ustom": 399,
      "(header_": 400,
      ".e": 401,
      "IN": 402,
      "MO": 403,
      "da": 404,
      "gin": 405,
      "la": 406,
      "mal": 407,
      "w_": 408,
      "width": 409,
      "▁1": 410,
      "▁C": 411,
      "▁size": 412,
      "▁cell": 413,
      "reselec": 414,
      "row_": 415,
      "▁_set_table_": 416,
      "▁bytes": 417,
      "▁cadena": 418,
      "bite2": 419,
      "▁\t\t\t\t": 420,
      "CLICK_ROW": 421,
      "CLICK_CELL": 422,
      "remove_theme_": 423,
      "add_theme_": 424,
      "ackground": 425,
      ".emit": 426,
      "CLICK_CELL_": 427,
      "--": 428,
      ":Vector2i": 429,
      "[/": 430,
      "_de": 431,
      "_as": 432,
      "an": 433,
      "e.\r\n": 434,
      "hover": 435,
      "nor": 436,
      "ot": 437,
      "ool": 438,
      "▁D": 439,
      "▁T": 440,
      "▁index": 441,
      "▁\theader_": 442,
      "led": 443,
      "▁tim": 444,
      "▁true": 445,
      "alse": 446,
      "alled": 447,
      "cend": 448,
      "▁if": 449,
      "▁@export_": 450,
      "▁\ttree.remove_theme_": 451,
      "tion": 452,
      "Table.": 453,
      "▁\t\ttree.add_theme_": 454,
      ":Array[Array": 455,
      "string_length": 456,
      "▁Called": 457,
      ".emit(result": 458,
      "normal": 459,
      "cending": 460,
      "$Table.": 461,
      "))\r\n": 462,
      ".get_": 463,
      "ES": 464,
      "EY": 465,
      "KEY": 466,
      "])": 467,
      "_click": 468,
      "el": 469,
      "ipo": 470,
      "lta": 471,
      "ype": 472,
      "▁stylebox": 473,
      "▁ex": 474,
      "▁selected": 475,
      "▁tipo": 476,
      "▁fra": 477,
      "▁false": 478,
      "ara": 479,
      "arr": 480,
      "allo": 481,
      "▁--": 482,
      "▁\",": 483,
      "item": 484,
      "nds": 485,
      "get_selected": 486,
      "[column])\r\n": 487,
      "ouble": 488,
      ":StyleBox)": 489,
      "data": 490,
      "w_reselec": 491,
      "KEY_": 492,
      "▁fram": 493,
      "allow_reselec": 494,
      "(a": 495,
      ".to": 496,
      "AT": 497,
      "DE": 498,
      "Font": 499,
      "Pack": 500,
      "[b": 501,
      "])\r\n": 502,
      "_ut": 503,
      "_reload": 504,
      "background": 505,
      "custom": 506,
      "double": 507,
      "f8": 508,
      "ir": 509,
      "igin": 510,
      "nter": 511,
      "o_reload": 512,
      "r]\r\n": 513,
      "▁E": 514,
      "▁set_header_": 515,
      "read": 516,
      "t_tree": 517,
      "tends": 518,
      "origin": 519,
      "▁tree": 520,
      "root": 521,
      "al_table": 522,
      "prue": 523,
      "():\r\n": 524,
      "column_": 525,
      "loat": 526,
      "uto_reload": 527,
      "stylebox_pressed": 528,
      "stylebox_hover": 529,
      "stylebox_normal": 530,
      "▁con": 531,
      "comp": 532,
      "compres": 533,
      "▁\tprint(\"": 534,
      "▁header_row": 535,
      "▁[code]": 536,
      "▁0:\r\n": 537,
      "▁bite2": 538,
      "his": 539,
      "▁no": 540,
      "set_table(table": 541,
      "[/code]": 542,
      "_ascending": 543,
      "▁true\r\n": 544,
      ".emit(result)\r\n": 545,
      "▁extends": 546,
      "Packed": 547,
      "[br]\r\n": 548,
      "_utf8": 549,
      "ready": 550,
      "original_table": 551,
      "\")": 552,
      "):\r\n": 553,
      "32": 554,
      ":C": 555,
      ":b": 556,
      ":Font": 557,
      "CO": 558,
      "DE_": 559,
      "ION": 560,
      "LE": 561,
      "MPR": 562,
      "SION": 563,
      "This": 564,
      "_pressed": 565,
      "d(": 566,
      "es": 567,
      "para": 568,
      "up": 569,
      "▁I": 570,
      "▁m": 571,
      "▁Array": 572,
      "▁table_": 573,
      "▁MO": 574,
      "▁\tfor": 575,
      "▁to": 576,
      "▁type": 577,
      "▁font": 578,
      "▁fir": 579,
      "font(": 580,
      "ces": 581,
      "cene": 582,
      "▁_ready": 583,
      "stylebox_override(\"title_button_": 584,
      "get_cell_": 585,
      "name_": 586,
      "▁sin": 587,
      "▁preload": 588,
      "▁des": 589,
      "▁\ttableContainer.set_header_": 590,
      "olor": 591,
      "▁[para": 592,
      "columns)\r\n": 593,
      "click_cell_": 594,
      "▁De": 595,
      "ESSION": 596,
      "▁false\r\n": 597,
      "column_title": 598,
      ":Color": 599,
      ":bool": 600,
      "COMPR": 601,
      "DE_COMPR": 602,
      "▁first": 603,
      "▁[param": 604,
      "DE_COMPRESSION": 605,
      "\"\r\n": 606,
      "(b": 607,
      "(pos": 608,
      ".a": 609,
      ":K": 610,
      "BA": 611,
      "BL": 612,
      "DAT": 613,
      "EBA": 614,
      "OS": 615,
      "OU": 616,
      "PE_": 617,
      "POS": 618,
      "T_": 619,
      "T:\r\n": 620,
      "Tree": 621,
      "UEBA": 622,
      "YPE_": 623,
      "_a": 624,
      "_on_": 625,
      "_IN": 626,
      "ate": 627,
      "ane": 628,
      "at(": 629,
      "en": 630,
      "ff": 631,
      "go": 632,
      "hor": 633,
      "is": 634,
      "it_tree": 635,
      "l\r\n": 636,
      "lon": 637,
      "ppe": 638,
      "tn": 639,
      "uff": 640,
      "va": 641,
      "▁'": 642,
      "▁>": 643,
      "▁st": 644,
      "▁set_": 645,
      "▁ne": 646,
      "▁pos": 647,
      "▁Vector2i": 648,
      "▁PR": 649,
      "▁comprimido": 650,
      "▁\ttable_": 651,
      "▁\tresult": 652,
      "delta": 653,
      "ind(": 654,
      "se:\r\n": 655,
      "tex": 656,
      "▁for": 657,
      "▁\t\tvar": 658,
      "rand": 659,
      "tree.get_selected": 660,
      "nd(": 661,
      "▁scene": 662,
      "bitearr": 663,
      "t_mode_ascending": 664,
      "E_CLICK": 665,
      ".size():\r\n": 666,
      "▁enter": 667,
      "mitted": 668,
      "▁_on_table_": 669,
      "▁key:K": 670,
      ".connect(_on_": 671,
      "row_index": 672,
      "CLICK_ROW_IN": 673,
      "CLICK_CELL_DAT": 674,
      "CLICK_CELL_POS": 675,
      "▁TYPE_": 676,
      "▁time.\r\n": 677,
      "else:\r\n": 678,
      "allow_reselect": 679,
      "DEX": 680,
      "custom_": 681,
      "double_click": 682,
      "▁Emitted": 683,
      "compress(": 684,
      "▁\tprint(\"This": 685,
      "▁node": 686,
      "▁In": 687,
      "▁typeof": 688,
      ".appe": 689,
      "BLE_CLICK": 690,
      "OUBLE_CLICK": 691,
      "long": 692,
      "▁str": 693,
      "▁PRUEBA": 694,
      "▁enters": 695,
      "▁key:Key": 696,
      "CLICK_ROW_INDEX": 697,
      "CLICK_CELL_DATA": 698,
      ".append(": 699,
      "(row": 700,
      "(stylebox": 701,
      ".re": 702,
      ".[br]\r\n": 703,
      ":1": 704,
      ":Tree": 705,
      "BU": 706,
      "Byte": 707,
      "EN": 708,
      "SE_": 709,
      "TT": 710,
      "USE_": 711,
      "[i": 712,
      "_in": 713,
      "_selected": 714,
      "_override(\"": 715,
      "_override(\"title_button_": 716,
      "_item": 717,
      "_root": 718,
      "auto_reload": 719,
      "ba": 720,
      "bytes": 721,
      "btn": 722,
      "cadena": 723,
      "chi": 724,
      "dy": 725,
      "e.": 726,
      "fla": 727,
      "float": 728,
      "i)\r\n": 729,
      "iou": 730,
      "las": 731,
      "pro": 732,
      "put": 733,
      "psed": 734,
      "s\r\n": 735,
      "ts": 736,
      "tro": 737,
      "use": 738,
      "viou": 739,
      "ón": 740,
      "▁<": 741,
      "▁S": 742,
      "▁o": 743,
      "▁int": 744,
      "▁mo": 745,
      "▁Con": 746,
      "▁color": 747,
      "▁result": 748,
      "▁string_length": 749,
      "▁$Table.": 750,
      "▁Packed": 751,
      "▁\treturn": 752,
      "▁\tbite2": 753,
      "▁\tset_table(table": 754,
      "▁\telse:\r\n": 755,
      "resi": 756,
      "reviou": 757,
      "ins": 758,
      "t_btn": 759,
      "tem": 760,
      "ten": 761,
      "tes": 762,
      "rom": 763,
      "ida": 764,
      "▁\t\ta": 765,
      "▁\t\tfor": 766,
      "▁function": 767,
      "um(\"": 768,
      "▁_pro": 769,
      "▁it": 770,
      "▁i:int": 771,
      "().get_": 772,
      "▁\"prue": 773,
      "ted_table": 774,
      "very": 775,
      "stylebox_background": 776,
      "▁ch": 777,
      "▁custom": 778,
      "prints(": 779,
      "_buff": 780,
      "▁and": 781,
      "▁a[column]": 782,
      "ackarray": 783,
      "▁sor": 784,
      "▁previou": 785,
      "▁packarray": 786,
      "▁width": 787,
      "▁\ttableContainer.set_": 788,
      "String": 789,
      ":String": 790,
      "TableContainer": 791,
      "▁ela": 792,
      "▁every": 793,
      "_button_index": 794,
      "▁\tprints(bite2": 795,
      "comprimida": 796,
      "font:Font": 797,
      "ON_": 798,
      "▁tree.columns)\r\n": 799,
      "sorter": 800,
      ":StyleBox:": 801,
      "(value:StyleBox)": 802,
      "▁used": 803,
      "▁1,": 804,
      "▁bytes\r\n": 805,
      "_decomprimida": 806,
      "▁time": 807,
      "▁@export_en": 808,
      ":Array[Array])": 809,
      "▁stylebox)\r\n": 810,
      "▁stylebox:\r\n": 811,
      "▁selected.": 812,
      "▁tipo_b": 813,
      "▁tipo_a": 814,
      "▁--\r\n": 815,
      "▁frame.\r\n": 816,
      "▁frame.": 817,
      "(a[column])\r\n": 818,
      ".to_utf8": 819,
      "compresi": 820,
      "▁MODE_COMPRESSION": 821,
      "cess(": 822,
      "▁_ready()": 823,
      "get_cell_pos": 824,
      "name_rand": 825,
      "▁since": 826,
      "▁preload(\"": 827,
      "▁Defla": 828,
      ":Color)": 829,
      "(b[column])\r\n": 830,
      "(pos:Vector2i": 831,
      "anel": 832,
      "▁'delta": 833,
      "▁\tresult.": 834,
      "▁TYPE_IN": 835,
      "(stylebox:StyleBox)": 836,
      ".resize": 837,
      "BUTT": 838,
      "ByteArray": 839,
      "USE_BUTT": 840,
      "chil": 841,
      "put.": 842,
      "trol\r\n": 843,
      "use_button_index": 844,
      "▁mouse_button_index": 845,
      "▁Control\r\n": 846,
      "▁_process(": 847,
      "▁\"prueba": 848,
      "_buffer": 849,
      "▁previous": 850,
      "▁elapsed": 851,
      "▁\tprints(bite2,": 852,
      "▁@export_enum(\"": 853,
      ".to_utf8_buffer": 854,
      "compresión": 855,
      "name_random": 856,
      "▁Deflate": 857,
      "▁'delta'": 858,
      "USE_BUTTON_": 859,
      "\"])\r\n": 860,
      "(-": 861,
      "(0": 862,
      "(t": 863,
      "(size": 864,
      "(column": 865,
      "(cell": 866,
      "(index": 867,
      ".d": 868,
      ".f": 869,
      ".de": 870,
      ".remove_": 871,
      ".compress(": 872,
      "0\",": 873,
      "1,": 874,
      ":0\",": 875,
      "ACE": 876,
      "DOUBLE_CLICK": 877,
      "ER": 878,
      "Item": 879,
      "PACE": 880,
      "RI": 881,
      "SPACE": 882,
      "TER": 883,
      "[\"": 884,
      "]:": 885,
      "_A": 886,
      "_column": 887,
      "_array": 888,
      "_columns": 889,
      "_dy": 890,
      "and": 891,
      "cti": 892,
      "do": 893,
      "dre": 894,
      "ets": 895,
      "from": 896,
      "gf": 897,
      "gh": 898,
      "hh": 899,
      "i,": 900,
      "ic": 901,
      "lu": 902,
      "ly": 903,
      "mic": 904,
      "n()": 905,
      "pa": 906,
      "pas": 907,
      "ror": 908,
      "shor": 909,
      "sand": 910,
      "ux": 911,
      "w_table": 912,
      "▁%": 913,
      "▁2": 914,
      "▁on": 915,
      "▁or": 916,
      "▁un": 917,
      "▁header": 918,
      "▁column": 919,
      "▁string": 920,
      "▁set_table_": 921,
      "▁KEY_": 922,
      "▁prue": 923,
      "▁original_table": 924,
      "▁\ttable": 925,
      "seed": 926,
      "tan": 927,
      "table.size()": 928,
      "▁-1": 929,
      "set_column_title": 930,
      "row(": 931,
      "row)\r\n": 932,
      "▁_in": 933,
      "prins": 934,
      "())\r\n": 935,
      "▁\"--": 936,
      "▁\"prins": 937,
      "(\"Table": 938,
      "add": 939,
      "▁bool": 940,
      "get_root": 941,
      "assed": 942,
      "▁@to": 943,
      "▁auto_reload": 944,
      "namic": 945,
      "▁passed": 946,
      "▁was": 947,
      "array_": 948,
      ".size()\r\n": 949,
      "▁header_columns": 950,
      "▁header_width": 951,
      "▁row_columns": 952,
      "▁\ttableContainer.set_table_": 953,
      "▁\t\t\tprints(": 954,
      "▁\ttree.item": 955,
      "remove_row_": 956,
      "remove_las": 957,
      "d_stylebox": 958,
      "ol\r\n": 959,
      "tic": 960,
      "select_mode.": 961,
      ".size(),": 962,
      ".size())\r\n": 963,
      "group": 964,
      "font_color(": 965,
      "reload_table": 966,
      "▁table,": 967,
      "▁\t\ttree.set_column_title": 968,
      "add_row(": 969,
      "(table)\r\n": 970,
      "(table:Array[Array])": 971,
      ":Array[String": 972,
      "▁tree.get_selected": 973,
      "▁tree.get_root": 974,
      "ackground_stylebox": 975,
      "rue)\r\n": 976,
      "sort_mode_ascending": 977,
      "sorted_table": 978,
      "▁array_": 979,
      "click_row_index": 980,
      "string_from": 981,
      "▁usand": 982,
      "▁key)\r\n": 983,
      "set_table(": 984,
      "▁1\r\n": 985,
      "▁cell:": 986,
      "▁bytes:\r\n": 987,
      "▁cadena.to_utf8_buffer": 988,
      "▁\t\t\t\t\t": 989,
      "_delta": 990,
      "▁@export_group": 991,
      "▁\ttree.remove_theme_stylebox_override(\"title_button_": 992,
      "▁\t\ttree.add_theme_stylebox_override(\"title_button_": 993,
      ".get_string_from": 994,
      "_clicked": 995,
      "data)\r\n": 996,
      "allow_reselect(": 997,
      "▁[code]KEY_": 998,
      "[/code][br]\r\n": 999,
      "32float": 1000,
      "LEF": 1001,
      "_pressed():\r\n": 1002,
      "▁Array(": 1003,
      "column_title_clicked": 1004,
      ":bool)": 1005,
      "ind(tree.get_selected": 1006,
      "text(": 1007,
      ".append([\"": 1008,
      "(row:Array": 1009,
      ":TreeItem": 1010,
      "ENTER": 1011,
      "cadena_decomprimida": 1012,
      "▁Sets": 1013,
      "▁\tset_table(table)\r\n": 1014,
      "().get_chil": 1015,
      "▁char": 1016,
      ".resize(header_": 1017,
      "▁_process(_delta": 1018,
      "(-1,": 1019,
      "(0,": 1020,
      "(true)\r\n": 1021,
      "(cell:String": 1022,
      ".find(tree.get_selected": 1023,
      ".remove_at(": 1024,
      "_dynamic": 1025,
      "dren()": 1026,
      "lugin": 1027,
      "short": 1028,
      "▁prueva": 1029,
      "▁\"----": 1030,
      "▁bool:\r\n": 1031,
      "▁@tool\r\n": 1032,
      "▁\t\t\tprints(i)\r\n": 1033,
      "▁tree.get_root().get_chil": 1034,
      "▁usando": 1035,
      "▁cadena.to_utf8_buffer()\r\n": 1036,
      ".get_string_from_utf8": 1037,
      ".find(tree.get_selected())\r\n": 1038,
      "dren().find(tree.get_selected())\r\n": 1039,
      "▁tree.get_root().get_children().find(tree.get_selected())\r\n": 1040,
      "\":\r\n": 1041,
      "\"]\r\n": 1042,
      "$B": 1043,
      "$index": 1044,
      "(KEY_": 1045,
      "(bitearr": 1046,
      "(custom_": 1047,
      "(i,": 1048,
      ".b": 1049,
      ".s": 1050,
      ".sor": 1051,
      ".length": 1052,
      "//": 1053,
      "/go": 1054,
      "/TableContainer": 1055,
      "22": 1056,
      ":3": 1057,
      ":select_mode": 1058,
      ":[/": 1059,
      ":Packed": 1060,
      "://": 1061,
      "=y": 1062,
      "AD": 1063,
      "AY": 1064,
      "And": 1065,
      "A:1": 1066,
      "CT_": 1067,
      "ELE": 1068,
      "E:1": 1069,
      "FL": 1070,
      "Float": 1071,
      "GH": 1072,
      "GZ": 1073,
      "IP": 1074,
      "Im": 1075,
      "La": 1076,
      "NO": 1077,
      "NON": 1078,
      "NAD": 1079,
      "Panel": 1080,
      "RR": 1081,
      "Re": 1082,
      "ST": 1083,
      "SELE": 1084,
      "YES": 1085,
      "[pos": 1086,
      "]Im": 1087,
      "_g": 1088,
      "_cell": 1089,
      "_string": 1090,
      "_key": 1091,
      "_double_click": 1092,
      "_tes": 1093,
      "_sorter": 1094,
      "_seed": 1095,
      "ault": 1096,
      "ater": 1097,
      "b[column]": 1098,
      "bten": 1099,
      "ch": 1100,
      "ci": 1101,
      "cl": 1102,
      "cre": 1103,
      "cate": 1104,
      "cida": 1105,
      "ds": 1106,
      "fault": 1107,
      "gd": 1108,
      "has": 1109,
      "jk": 1110,
      "kf": 1111,
      "l_item": 1112,
      "mat": 1113,
      "nge": 1114,
      "ocida": 1115,
      "panel": 1116,
      "sar": 1117,
      "scending": 1118,
      "s/go": 1119,
      "type": 1120,
      "t:[/": 1121,
      "ud": 1122,
      "us": 1123,
      "ve": 1124,
      "vg": 1125,
      "w]Im": 1126,
      "y_seed": 1127,
      "▁!": 1128,
      "▁+": 1129,
      "▁y": 1130,
      "▁he": 1131,
      "▁:\r\n": 1132,
      "▁co": 1133,
      "▁po": 1134,
      "▁get_": 1135,
      "▁remov": 1136,
      "▁da": 1137,
      "▁CLICK_ROW": 1138,
      "▁double": 1139,
      "▁name_": 1140,
      "▁go": 1141,
      "▁tex": 1142,
      "▁CLICK_CELL_POS": 1143,
      "▁long": 1144,
      "▁CLICK_ROW_INDEX": 1145,
      "▁CLICK_CELL_DATA": 1146,
      "▁get_cell_pos": 1147,
      "▁compresión": 1148,
      "▁reload_table": 1149,
      "▁$B": 1150,
      "▁Re": 1151,
      "▁\ta": 1152,
      "▁\tbite": 1153,
      "▁\ttree": 1154,
      "▁\tCLICK_ROW": 1155,
      "▁\tstring_length": 1156,
      "▁\t$Table.": 1157,
      "▁\tbackground": 1158,
      "▁\tbitearr": 1159,
      "▁\tCLICK_CELL_POS": 1160,
      "▁\tCLICK_ROW_INDEX": 1161,
      "▁\tCLICK_CELL_DATA": 1162,
      "▁\tbytes": 1163,
      "▁\tname_random": 1164,
      "▁\tDOUBLE_CLICK": 1165,
      "▁\tpas": 1166,
      "letes": 1167,
      "re.\r\n": 1168,
      "reater": 1169,
      "inim": 1170,
      "tatic": 1171,
      "ons/go": 1172,
      "t_row": 1173,
      "t_custom": 1174,
      "or_g": 1175,
      "table.remove_at(": 1176,
      "▁tu": 1177,
      "aded": 1178,
      "ali": 1179,
      "alida": 1180,
      "▁\t\t\r\n": 1181,
      "▁\t\tprint": 1182,
      "▁\t\ttableContainer.": 1183,
      "▁\t\tkey": 1184,
      "▁\t\tselect_mode.": 1185,
      "▁\t\tb[column]": 1186,
      "▁\t\ttable.remove_at(": 1187,
      "range": 1188,
      "sition": 1189,
      "error": 1190,
      "header(header_": 1191,
      "set_select_mode": 1192,
      "set_stylebox_background": 1193,
      "▁then": 1194,
      "row.resize(header_": 1195,
      "▁_set_stylebox_background": 1196,
      "ree.SELE": 1197,
      "()#": 1198,
      "column))\r\n": 1199,
      "▁\"bite": 1200,
      "▁\"is": 1201,
      "▁\"GZ": 1202,
      "▁\"NO": 1203,
      "▁\"or_g": 1204,
      "res://": 1205,
      "(\"La": 1206,
      "font_override(\"": 1207,
      "font_override(\"title_button_": 1208,
      "itud": 1209,
      "▁b,": 1210,
      "▁be": 1211,
      "▁bo": 1212,
      "▁b[column]": 1213,
      "▁b22": 1214,
      "table_select_mode": 1215,
      "low]Im": 1216,
      "on_column_title_clicked": 1217,
      "stylebox_override(\"": 1218,
      "new": 1219,
      "new_": 1220,
      "color]": 1221,
      "color_override(\"": 1222,
      "color_override(\"title_button_": 1223,
      "color:Color)": 1224,
      "color=y": 1225,
      "▁click": 1226,
      "▁can": 1227,
      "pos(": 1228,
      ":int,": 1229,
      ":int:": 1230,
      ":int)\r\n": 1231,
      "_byte": 1232,
      "▁acti": 1233,
      "tableContainer.set_select_mode": 1234,
      "licate": 1235,
      "portan": 1236,
      ":Array)": 1237,
      ":Array\r\n": 1238,
      "▁shor": 1239,
      "▁static": 1240,
      "▁salida": 1241,
      "bite,": 1242,
      "bite)\r\n": 1243,
      "ther": 1244,
      "riz": 1245,
      "▁pes": 1246,
      "▁plugin": 1247,
      "▁decomp": 1248,
      "▁default": 1249,
      "selected.connect(": 1250,
      "font_size\r\n": 1251,
      "font_size)\r\n": 1252,
      "font_size\",": 1253,
      "font_size\")\r\n": 1254,
      "font_size(value": 1255,
      "font_size_override(\"": 1256,
      "font_size_override(\"title_button_": 1257,
      "font_size(size": 1258,
      "font_size:int:": 1259,
      "▁header_size": 1260,
      "▁\t\t\tMO": 1261,
      "▁\t\t\trow.resize(header_": 1262,
      "▁\t\t\ttableContainer.set_select_mode": 1263,
      "▁\ttree.cell_": 1264,
      "_table/TableContainer": 1265,
      "ed\")\r\n": 1266,
      "▁[color=y": 1267,
      "tos": 1268,
      "to_string": 1269,
      "value:Font": 1270,
      "▁0\r\n": 1271,
      "▁en": 1272,
      "▁_set_header_row": 1273,
      "▁_set_header_font_color": 1274,
      "▁_set_header_width": 1275,
      "▁_set_header_stylebox_pressed": 1276,
      "▁_set_header_stylebox_hover": 1277,
      "▁_set_header_stylebox_normal": 1278,
      "font_color)\r\n": 1279,
      "font_color:Color": 1280,
      "▁\tprints(comprimido": 1281,
      "▁\tprints(string_length": 1282,
      "▁\tprints(bytes": 1283,
      "▁\tprints(cl": 1284,
      "▁\tprints(bite,": 1285,
      "▁table.size()": 1286,
      "▁table.size():\r\n": 1287,
      "▁\t\ttree.select_mode": 1288,
      "font\r\n": 1289,
      "font)\r\n": 1290,
      "font\",": 1291,
      "font\")\r\n": 1292,
      "▁_on_click_cell_": 1293,
      ":Array[int": 1294,
      "CELL[/code]": 1295,
      "▁tree.cre": 1296,
      "▁bite.to": 1297,
      "click_row": 1298,
      "(value:Color)": 1299,
      "atriz": 1300,
      "▁not": 1301,
      "▁use": 1302,
      "▁uan": 1303,
      "▁\t#var": 1304,
      ".connect(get_": 1305,
      "MODE_COMPRESSION": 1306,
      "width(column": 1307,
      "▁size)\r\n": 1308,
      "reselect": 1309,
      "▁_set_table_select_mode": 1310,
      "▁_set_table_font_color": 1311,
      "▁bytes.compress(": 1312,
      "▁cadena\r\n": 1313,
      "▁cadena.length": 1314,
      "▁\t\t\t\tif": 1315,
      "▁\t\t\t\tsort_mode_ascending": 1316,
      "▁\t\t\t\tset_table(": 1317,
      "_descending": 1318,
      "_asci": 1319,
      "▁DOUBLE_CLICK": 1320,
      "▁Tree.SELE": 1321,
      "▁index)\r\n": 1322,
      "▁\theader_width": 1323,
      "▁@export_range": 1324,
      ":Array[Array]": 1325,
      ":Array[Array]\r\n": 1326,
      ".emit(result,": 1327,
      "ellow]Im": 1328,
      "arr:": 1329,
      "data()": 1330,
      "(a,": 1331,
      "ATE:1": 1332,
      "DEFL": 1333,
      "t_tree_table/TableContainer": 1334,
      "compress": 1335,
      "▁header_row.size()\r\n": 1336,
      "▁[code]table_select_mode": 1337,
      "▁[code]CELL[/code]": 1338,
      "set_table(table,": 1339,
      "32Array": 1340,
      "_pressed(KEY_": 1341,
      "uplicate": 1342,
      "▁matriz": 1343,
      "▁table_select_mode": 1344,
      "▁MOUSE_BUTTON_": 1345,
      "▁font)\r\n": 1346,
      "▁font:\r\n": 1347,
      "font(font:Font": 1348,
      "font(value:Font": 1349,
      "cessar": 1350,
      "▁preload_": 1351,
      "▁descomprimido": 1352,
      "▁descompresión": 1353,
      "▁Deletes": 1354,
      "T_NAD": 1355,
      "ate_item": 1356,
      "is_key": 1357,
      "it_tree()": 1358,
      "it_tree()\r\n": 1359,
      "▁>=": 1360,
      "▁new_table": 1361,
      "▁necessar": 1362,
      "▁pos]": 1363,
      "▁pos)\r\n": 1364,
      "▁Vector2i(-1,": 1365,
      "▁comprimido.de": 1366,
      "ind(column))\r\n": 1367,
      "▁_on_table_click_cell_": 1368,
      ".connect(_on_click_cell_": 1369,
      "custom_type": 1370,
      "▁Input.": 1371,
      "▁typeof(a[column])\r\n": 1372,
      "▁typeof(b[column])\r\n": 1373,
      "▁str(a[column])\r\n": 1374,
      "▁str(b[column])\r\n": 1375,
      "▁PRUEBA:": 1376,
      "▁key:Key)": 1377,
      "▁key:Key)\r\n": 1378,
      "[i])\r\n": 1379,
      "_input.": 1380,
      "_init_tree()\r\n": 1381,
      "_selected_cell": 1382,
      "_selected.connect(get_": 1383,
      "auto_reload_tes": 1384,
      "▁obten": 1385,
      "▁color)\r\n": 1386,
      "▁color:\r\n": 1387,
      "▁result:Vector2i": 1388,
      "▁string_length\r\n": 1389,
      "▁PackedByteArray": 1390,
      "▁PackedFloat": 1391,
      "t_btn_pressed():\r\n": 1392,
      "tens": 1393,
      "▁\t\ta[column]": 1394,
      "▁\t\ta.append([\"": 1395,
      "▁functions": 1396,
      "▁custom_sorter": 1397,
      "▁sort_mode_ascending": 1398,
      "▁packarray32float": 1399,
      "font:Font:": 1400,
      "▁used\r\n": 1401,
      "▁MODE_COMPRESSION:": 1402,
      "▁MODE_COMPRESSION)\r\n": 1403,
      "▁preload(\"res://": 1404,
      "(pos:Vector2i,": 1405,
      "(pos:Vector2i)\r\n": 1406,
      "▁\tresult.x": 1407,
      "▁\tresult.y": 1408,
      "▁TYPE_INT": 1409,
      "▁TYPE_INT:\r\n": 1410,
      "▁@export_enum(\"YES": 1411,
      "▁Deflate,": 1412,
      "▁Deflate\r\n": 1413,
      "(index:int)\r\n": 1414,
      ".duplicate": 1415,
      "RIGH": 1416,
      "_ARR": 1417,
      "_column()\r\n": 1418,
      "_array()\r\n": 1419,
      "dot_tree_table/TableContainer": 1420,
      "gfj": 1421,
      "▁%d": 1422,
      "▁only": 1423,
      "▁column:int)": 1424,
      "▁-1)\r\n": 1425,
      "▁_init_tree()": 1426,
      "(\"Table\")\r\n": 1427,
      "addons/go": 1428,
      "▁header_columns:\r\n": 1429,
      "▁\ttree.item_selected.connect(get_": 1430,
      "remove_row_at(": 1431,
      "remove_last_row": 1432,
      "font_color(color:Color)": 1433,
      "add_row(array_": 1434,
      ":Array[String])": 1435,
      "▁tree.get_selected_column()\r\n": 1436,
      "sorted_table.sor": 1437,
      "▁\t\t\t\t\tsorted_table.sor": 1438,
      "▁@export_group(\"": 1439,
      "LEFT": 1440,
      "▁Array(bite)\r\n": 1441,
      "(row:Array)\r\n": 1442,
      "cadena_decomprimida)\r\n": 1443,
      "▁char_asci": 1444,
      "▁_process(_delta)": 1445,
      "(cell:String)\r\n": 1446,
      "▁\"----\":\r\n": 1447,
      ".get_string_from_utf8()\r\n": 1448,
      "$index_input.": 1449,
      "(bitearr)\r\n": 1450,
      "(custom_sorter": 1451,
      ".bind(column))\r\n": 1452,
      "AY:0\",": 1453,
      "A:1\")": 1454,
      "IP:3": 1455,
      "NONE": 1456,
      "PanelContainer": 1457,
      "[pos.": 1458,
      "match": 1459,
      "ocida\r\n": 1460,
      "t:[/color]": 1461,
      "▁here.\r\n": 1462,
      "▁coun": 1463,
      "▁position": 1464,
      "▁removed\")\r\n": 1465,
      "▁datos": 1466,
      "▁CLICK_ROW(row:Array)\r\n": 1467,
      "▁name_sed": 1468,
      "▁goes": 1469,
      "▁text": 1470,
      "▁CLICK_CELL_POS(pos:Vector2i)\r\n": 1471,
      "▁longitud": 1472,
      "▁CLICK_ROW_INDEX(index:int)\r\n": 1473,
      "▁CLICK_CELL_DATA(cell:String)\r\n": 1474,
      "▁compresión,": 1475,
      "▁$Background": 1476,
      "▁\tCLICK_ROW.emit(result)\r\n": 1477,
      "▁\tCLICK_CELL_POS.emit(result)\r\n": 1478,
      "▁\tCLICK_ROW_INDEX.emit(result)\r\n": 1479,
      "▁\tDOUBLE_CLICK.emit(result,": 1480,
      "▁\tpass\r\n": 1481,
      "reater\")": 1482,
      "inimum": 1483,
      "t_custom(custom_sorter": 1484,
      "▁\t\tprint(\"La": 1485,
      "▁\"GZIP:3": 1486,
      "▁\"NOT_NAD": 1487,
      "▁\"or_greater\")": 1488,
      "▁b[column]:\r\n": 1489,
      "stylebox_override(\"panel": 1490,
      "color_override(\"font_color": 1491,
      "color_override(\"title_button_color": 1492,
      "▁clicked": 1493,
      "_byte_array()\r\n": 1494,
      "portant:[/color]": 1495,
      "▁shortens": 1496,
      "▁pesa": 1497,
      "▁decomp_dynamic": 1498,
      "font_size(value:int)": 1499,
      "font_size(size:int)": 1500,
      "▁\t\t\tMOUSE_BUTTON_": 1501,
      "▁\t\t\trow.resize(header_columns)\r\n": 1502,
      "▁\ttree.cell_selected.connect(": 1503,
      "▁[color=yellow]Im": 1504,
      "to_string(": 1505,
      "font_color:Color:": 1506,
      "▁\tprints(comprimido.size(),": 1507,
      "▁tree.create_item": 1508,
      "▁bite.to_byte_array()\r\n": 1509,
      "▁uanto": 1510,
      "MODE_COMPRESSION)\r\n": 1511,
      "▁bytes.compress(MODE_COMPRESSION)\r\n": 1512,
      "▁cadena.length()\r\n": 1513,
      "▁DOUBLE_CLICK(pos:Vector2i,": 1514,
      "▁Tree.SELECT_": 1515,
      "▁@export_range(0,": 1516,
      "ATE:1\",": 1517,
      "DEFLATE:1\",": 1518,
      "▁[code]table_select_mode[/code]": 1519,
      "▁[code]CELL[/code].\r\n": 1520,
      "font(font:Font)": 1521,
      "font(value:Font)": 1522,
      "is_key_pressed(KEY_": 1523,
      "▁necessary": 1524,
      "▁Input.is_key_pressed(KEY_": 1525,
      "auto_reload_test_btn": 1526,
      "▁obtener": 1527,
      "▁PackedFloat32Array": 1528,
      "▁packarray32float\")\r\n": 1529,
      "▁preload(\"res://addons/go": 1530,
      "▁@export_enum(\"YES_ARR": 1531,
      ".duplicate(true)\r\n": 1532,
      "RIGHT:\r\n": 1533,
      "dot_tree_table/TableContainer.": 1534,
      "▁\t\t\t\t\tsorted_table.sort_custom(custom_sorter": 1535,
      "▁char_ascii": 1536,
      "▁\t\tprint(\"Last": 1537,
      "▁\"NOT_NADA:1\")": 1538,
      "▁[color=yellow]Important:[/color]": 1539,
      "▁preload(\"res://addons/godot_tree_table/TableContainer.": 1540,
      "▁@export_enum(\"YES_ARRAY:0\",": 1541
    },
    "merges": [
      [
        "\r",
        "\n"
      ],
      [
        "▁",
        "\t"
      ],
      [
        "l",
        "e"
      ],
      [
        "r",
        "e"
      ],
      [
        "d",
        "e"
      ],
      [
        "i",
        "n"
      ],
      [
        "s",
        "e"
      ],
      [
        "t",
        "a"
      ],
      [
        "o",
        "n"
      ],
      [
        "t",
        "_"
      ],
      [
        ")",
        "\r\n"
      ],
      [
        "h",
        "e"
      ],
      [
        "▁",
        "\r\n"
      ],
      [
        "b",
        "le"
      ],
      [
        "t",
        "e"
      ],
      [
        "o",
        "r"
      ],
      [
        "ta",
        "ble"
      ],
      [
        ":",
        "\r\n"
      ],
      [
        "c",
        "o"
      ],
      [
        "▁",
        "t"
      ],
      [
        "▁",
        "="
      ],
      [
        "▁",
        "f"
      ],
      [
        "a",
        "r"
      ],
      [
        "▁",
        "v"
      ],
      [
        "r",
        "o"
      ],
      [
        "u",
        "n"
      ],
      [
        "a",
        "de"
      ],
      [
        "a",
        "l"
      ],
      [
        "i",
        "d"
      ],
      [
        "s",
        "t"
      ],
      [
        "▁\t",
        "\t"
      ],
      [
        "co",
        "l"
      ],
      [
        "r",
        "a"
      ],
      [
        "s",
        "i"
      ],
      [
        "e",
        "r"
      ],
      [
        "▁f",
        "un"
      ],
      [
        "re",
        "e"
      ],
      [
        "▁fun",
        "c"
      ],
      [
        "ade",
        "r"
      ],
      [
        "▁",
        "-"
      ],
      [
        "he",
        "ader"
      ],
      [
        "se",
        "t_"
      ],
      [
        "header",
        "_"
      ],
      [
        "▁t",
        "he"
      ],
      [
        "ra",
        "y"
      ],
      [
        "in",
        "t"
      ],
      [
        "z",
        "e"
      ],
      [
        "si",
        "ze"
      ],
      [
        "▁-",
        ">"
      ],
      [
        "f",
        "on"
      ],
      [
        "ro",
        "w"
      ],
      [
        "u",
        "m"
      ],
      [
        "o",
        "x"
      ],
      [
        "y",
        "le"
      ],
      [
        "o",
        "id"
      ],
      [
        "▁v",
        "oid"
      ],
      [
        "▁void",
        ":\r\n"
      ],
      [
        "c",
        "e"
      ],
      [
        "▁",
        "_"
      ],
      [
        "p",
        "r"
      ],
      [
        "▁",
        "i"
      ],
      [
        "ree",
        "."
      ],
      [
        "(",
        ")"
      ],
      [
        "col",
        "um"
      ],
      [
        "colum",
        "n"
      ],
      [
        "▁",
        "\""
      ],
      [
        "m",
        "o"
      ],
      [
        "u",
        "e"
      ],
      [
        "le",
        "c"
      ],
      [
        "se",
        "lec"
      ],
      [
        "re",
        "s"
      ],
      [
        "b",
        "ox"
      ],
      [
        "c",
        "k"
      ],
      [
        "st",
        "yle"
      ],
      [
        "style",
        "box"
      ],
      [
        "A",
        "r"
      ],
      [
        "e",
        "_"
      ],
      [
        "Ar",
        "ray"
      ],
      [
        "(",
        "\""
      ],
      [
        "a",
        "d"
      ],
      [
        "i",
        "te"
      ],
      [
        "fon",
        "t_"
      ],
      [
        "C",
        "on"
      ],
      [
        "t",
        "ree."
      ],
      [
        "▁",
        "#"
      ],
      [
        "i",
        "t"
      ],
      [
        "▁",
        "b"
      ],
      [
        "▁v",
        "ar"
      ],
      [
        "table",
        "_"
      ],
      [
        "i",
        "f"
      ],
      [
        "l",
        "o"
      ],
      [
        "n",
        "d"
      ],
      [
        "in",
        "er"
      ],
      [
        "ta",
        "iner"
      ],
      [
        "on",
        "_"
      ],
      [
        "Con",
        "tainer"
      ],
      [
        "u",
        "t"
      ],
      [
        "in",
        "g"
      ],
      [
        "te",
        "d"
      ],
      [
        "e",
        "x"
      ],
      [
        "v",
        "er"
      ],
      [
        "▁\t",
        "if"
      ],
      [
        "stylebox",
        "_"
      ],
      [
        "g",
        "e"
      ],
      [
        "n",
        "e"
      ],
      [
        "col",
        "or"
      ],
      [
        "▁i",
        "s"
      ],
      [
        "s",
        "("
      ],
      [
        "▁",
        "c"
      ],
      [
        "al",
        "ue"
      ],
      [
        "pr",
        "int"
      ],
      [
        "\"",
        ","
      ],
      [
        "l",
        "l"
      ],
      [
        "p",
        "o"
      ],
      [
        "table",
        "Container"
      ],
      [
        "set_",
        "header_"
      ],
      [
        "\"",
        ")\r\n"
      ],
      [
        "o",
        "ver"
      ],
      [
        "t",
        "("
      ],
      [
        "se",
        "d"
      ],
      [
        "co",
        "m"
      ],
      [
        "ce",
        "ll"
      ],
      [
        "ge",
        "t_"
      ],
      [
        "v",
        "ar"
      ],
      [
        ":",
        "int"
      ],
      [
        "_",
        "b"
      ],
      [
        "a",
        "s"
      ],
      [
        "t",
        "h"
      ],
      [
        "de",
        "x"
      ],
      [
        "L",
        "I"
      ],
      [
        "i",
        "m"
      ],
      [
        "l",
        "t"
      ],
      [
        "m",
        "e_"
      ],
      [
        "u",
        "lt"
      ],
      [
        "▁",
        "@"
      ],
      [
        "▁",
        "a"
      ],
      [
        "in",
        "dex"
      ],
      [
        "tableContainer",
        "."
      ],
      [
        "C",
        "K"
      ],
      [
        "C",
        "LI"
      ],
      [
        "l",
        "i"
      ],
      [
        "p",
        "or"
      ],
      [
        "r",
        "ing"
      ],
      [
        "mo",
        "de"
      ],
      [
        "CLI",
        "CK"
      ],
      [
        "(",
        ")\r\n"
      ],
      [
        ":",
        "Array"
      ],
      [
        "a",
        "ck"
      ],
      [
        "n",
        "a"
      ],
      [
        "▁",
        "s"
      ],
      [
        "▁\t",
        "print"
      ],
      [
        "res",
        "ult"
      ],
      [
        "b",
        "ite"
      ],
      [
        "p",
        "res"
      ],
      [
        "t",
        "he"
      ],
      [
        "u",
        "r"
      ],
      [
        "t_",
        "mode"
      ],
      [
        "ex",
        "por"
      ],
      [
        "▁@",
        "expor"
      ],
      [
        "li",
        "ck"
      ],
      [
        "r",
        "i"
      ],
      [
        "t",
        "ur"
      ],
      [
        "▁",
        "p"
      ],
      [
        "▁",
        "w"
      ],
      [
        "▁",
        "de"
      ],
      [
        "re",
        "mo"
      ],
      [
        "re",
        "tur"
      ],
      [
        "ar",
        "ray"
      ],
      [
        "selec",
        "ted"
      ],
      [
        "font_",
        "size"
      ],
      [
        "remo",
        "v"
      ],
      [
        "retur",
        "n"
      ],
      [
        ".",
        "size"
      ],
      [
        "c",
        "lick"
      ],
      [
        "▁",
        "header_"
      ],
      [
        "▁",
        "row"
      ],
      [
        "▁\t",
        "var"
      ],
      [
        "▁\t",
        "tableContainer."
      ],
      [
        "▁\t\t",
        "\t"
      ],
      [
        "▁#",
        "#"
      ],
      [
        "E",
        "_"
      ],
      [
        "S",
        "t"
      ],
      [
        "e",
        "y"
      ],
      [
        "o",
        "f"
      ],
      [
        "y",
        "te"
      ],
      [
        "▁\t",
        "tree."
      ],
      [
        "de",
        "(\""
      ],
      [
        "over",
        "ri"
      ],
      [
        "CLICK",
        "_"
      ],
      [
        "the",
        "me_"
      ],
      [
        "remov",
        "e_"
      ],
      [
        "overri",
        "de(\""
      ],
      [
        "[",
        "column"
      ],
      [
        "_",
        "table"
      ],
      [
        "▁",
        "se"
      ],
      [
        "[column",
        "]"
      ],
      [
        "d",
        "_"
      ],
      [
        "e",
        "d"
      ],
      [
        "o",
        "l"
      ],
      [
        "t",
        "i"
      ],
      [
        "t",
        "it"
      ],
      [
        "▁",
        "["
      ],
      [
        "▁\t",
        "\r\n"
      ],
      [
        "selec",
        "t_mode"
      ],
      [
        "po",
        "s"
      ],
      [
        ".size",
        "()"
      ],
      [
        "▁se",
        "t"
      ],
      [
        "tit",
        "le"
      ],
      [
        "C",
        "E"
      ],
      [
        "a",
        "ble"
      ],
      [
        "o",
        "m"
      ],
      [
        "re",
        "lo"
      ],
      [
        "st",
        "ring"
      ],
      [
        "▁\t\t",
        "return"
      ],
      [
        ".",
        "\r\n"
      ],
      [
        ":",
        "St"
      ],
      [
        "T",
        "able"
      ],
      [
        "g",
        "ro"
      ],
      [
        "t",
        "o"
      ],
      [
        "t",
        "on_"
      ],
      [
        "v",
        "alue"
      ],
      [
        "▁",
        "0"
      ],
      [
        "▁",
        "e"
      ],
      [
        "set_",
        "table_"
      ],
      [
        "▁_",
        "set_header_"
      ],
      [
        "column",
        "s"
      ],
      [
        "font_",
        "color"
      ],
      [
        "ut",
        "ton_"
      ],
      [
        "_b",
        "utton_"
      ],
      [
        "▁\tprint",
        "s("
      ],
      [
        "pres",
        "sed"
      ],
      [
        "relo",
        "ad"
      ],
      [
        "k",
        "ey"
      ],
      [
        "m",
        "it"
      ],
      [
        "▁",
        "table"
      ],
      [
        "▁",
        "of"
      ],
      [
        "▁v",
        "alue"
      ],
      [
        "▁\t\t",
        "tree."
      ],
      [
        "pr",
        "im"
      ],
      [
        "ad",
        "d_"
      ],
      [
        "com",
        "prim"
      ],
      [
        "comprim",
        "id"
      ],
      [
        "(",
        "table"
      ],
      [
        "2",
        "i"
      ],
      [
        "L",
        "L"
      ],
      [
        "O",
        "W"
      ],
      [
        "R",
        "OW"
      ],
      [
        "V",
        "e"
      ],
      [
        "c",
        "t"
      ],
      [
        "g",
        "n"
      ],
      [
        "de",
        "]"
      ],
      [
        "te",
        "r"
      ],
      [
        "or",
        "2i"
      ],
      [
        "co",
        "de]"
      ],
      [
        "ade",
        "na"
      ],
      [
        "id",
        "th"
      ],
      [
        "fon",
        "t"
      ],
      [
        "▁_",
        "on_"
      ],
      [
        "cell",
        "_"
      ],
      [
        ":Array",
        "["
      ],
      [
        "▁@expor",
        "t"
      ],
      [
        "▁w",
        "he"
      ],
      [
        "yte",
        "s"
      ],
      [
        "CE",
        "LL"
      ],
      [
        "▁value",
        "\r\n"
      ],
      [
        "Ve",
        "ct"
      ],
      [
        "Vect",
        "or2i"
      ],
      [
        "(",
        "result"
      ],
      [
        "O",
        "N"
      ],
      [
        "c",
        "on"
      ],
      [
        "p",
        "e"
      ],
      [
        "on",
        "t"
      ],
      [
        "▁t",
        "ree."
      ],
      [
        "▁=",
        "="
      ],
      [
        "si",
        "gn"
      ],
      [
        "▁b",
        "ite"
      ],
      [
        "ack",
        "gro"
      ],
      [
        "ackgro",
        "un"
      ],
      [
        "B",
        "ox"
      ],
      [
        "g",
        "th"
      ],
      [
        "h",
        "i"
      ],
      [
        "n",
        "gth"
      ],
      [
        "o",
        "u"
      ],
      [
        "r",
        "ue"
      ],
      [
        "s",
        "or"
      ],
      [
        "▁",
        "in"
      ],
      [
        "▁",
        "array"
      ],
      [
        "▁",
        "sign"
      ],
      [
        "le",
        "ngth"
      ],
      [
        "yle",
        "Box"
      ],
      [
        ":int",
        ")"
      ],
      [
        "click",
        "_"
      ],
      [
        "override(\"",
        "title"
      ],
      [
        "string",
        "_"
      ],
      [
        "▁\t\treturn",
        "\r\n"
      ],
      [
        ":St",
        "yleBox"
      ],
      [
        "▁whe",
        "n"
      ],
      [
        "▁sign",
        "al"
      ],
      [
        "override(\"title",
        "_button_"
      ],
      [
        "(",
        "value"
      ],
      [
        ".",
        "con"
      ],
      [
        "P",
        "R"
      ],
      [
        "]",
        "\r\n"
      ],
      [
        "a",
        "t"
      ],
      [
        "c",
        "t("
      ],
      [
        "f",
        "or"
      ],
      [
        "t",
        "ree"
      ],
      [
        "u",
        "st"
      ],
      [
        "▁",
        "n"
      ],
      [
        "▁",
        "u"
      ],
      [
        "▁",
        "key"
      ],
      [
        "▁\t",
        "#"
      ],
      [
        "set_",
        "table"
      ],
      [
        "ne",
        "ct("
      ],
      [
        "comprimid",
        "o"
      ],
      [
        ".con",
        "nect("
      ],
      [
        "ust",
        "om"
      ],
      [
        "(",
        "header_"
      ],
      [
        ".",
        "e"
      ],
      [
        "I",
        "N"
      ],
      [
        "M",
        "O"
      ],
      [
        "d",
        "a"
      ],
      [
        "g",
        "in"
      ],
      [
        "l",
        "a"
      ],
      [
        "m",
        "al"
      ],
      [
        "w",
        "_"
      ],
      [
        "w",
        "idth"
      ],
      [
        "▁",
        "1"
      ],
      [
        "▁",
        "C"
      ],
      [
        "▁",
        "size"
      ],
      [
        "▁",
        "cell"
      ],
      [
        "re",
        "selec"
      ],
      [
        "row",
        "_"
      ],
      [
        "▁_",
        "set_table_"
      ],
      [
        "▁b",
        "ytes"
      ],
      [
        "▁c",
        "adena"
      ],
      [
        "bite",
        "2"
      ],
      [
        "▁\t\t\t",
        "\t"
      ],
      [
        "CLICK_",
        "ROW"
      ],
      [
        "CLICK_",
        "CELL"
      ],
      [
        "remove_",
        "theme_"
      ],
      [
        "add_",
        "theme_"
      ],
      [
        "ackgroun",
        "d"
      ],
      [
        ".e",
        "mit"
      ],
      [
        "CLICK_CELL",
        "_"
      ],
      [
        "-",
        "-"
      ],
      [
        ":",
        "Vector2i"
      ],
      [
        "[",
        "/"
      ],
      [
        "_",
        "de"
      ],
      [
        "_",
        "as"
      ],
      [
        "a",
        "n"
      ],
      [
        "e",
        ".\r\n"
      ],
      [
        "h",
        "over"
      ],
      [
        "n",
        "or"
      ],
      [
        "o",
        "t"
      ],
      [
        "o",
        "ol"
      ],
      [
        "▁",
        "D"
      ],
      [
        "▁",
        "T"
      ],
      [
        "▁",
        "index"
      ],
      [
        "▁\t",
        "header_"
      ],
      [
        "le",
        "d"
      ],
      [
        "▁t",
        "im"
      ],
      [
        "▁t",
        "rue"
      ],
      [
        "al",
        "se"
      ],
      [
        "al",
        "led"
      ],
      [
        "ce",
        "nd"
      ],
      [
        "▁i",
        "f"
      ],
      [
        "▁@expor",
        "t_"
      ],
      [
        "▁\ttree.",
        "remove_theme_"
      ],
      [
        "ti",
        "on"
      ],
      [
        "Table",
        "."
      ],
      [
        "▁\t\ttree.",
        "add_theme_"
      ],
      [
        ":Array[",
        "Array"
      ],
      [
        "string_",
        "length"
      ],
      [
        "▁C",
        "alled"
      ],
      [
        ".emit",
        "(result"
      ],
      [
        "nor",
        "mal"
      ],
      [
        "cend",
        "ing"
      ],
      [
        "$",
        "Table."
      ],
      [
        ")",
        ")\r\n"
      ],
      [
        ".",
        "get_"
      ],
      [
        "E",
        "S"
      ],
      [
        "E",
        "Y"
      ],
      [
        "K",
        "EY"
      ],
      [
        "]",
        ")"
      ],
      [
        "_",
        "click"
      ],
      [
        "e",
        "l"
      ],
      [
        "i",
        "po"
      ],
      [
        "l",
        "ta"
      ],
      [
        "y",
        "pe"
      ],
      [
        "▁",
        "stylebox"
      ],
      [
        "▁",
        "ex"
      ],
      [
        "▁",
        "selected"
      ],
      [
        "▁t",
        "ipo"
      ],
      [
        "▁f",
        "ra"
      ],
      [
        "▁f",
        "alse"
      ],
      [
        "ar",
        "a"
      ],
      [
        "ar",
        "r"
      ],
      [
        "al",
        "lo"
      ],
      [
        "▁-",
        "-"
      ],
      [
        "▁\"",
        ","
      ],
      [
        "ite",
        "m"
      ],
      [
        "nd",
        "s"
      ],
      [
        "get_",
        "selected"
      ],
      [
        "[column]",
        ")\r\n"
      ],
      [
        "ou",
        "ble"
      ],
      [
        ":StyleBox",
        ")"
      ],
      [
        "da",
        "ta"
      ],
      [
        "w_",
        "reselec"
      ],
      [
        "KEY",
        "_"
      ],
      [
        "▁fra",
        "m"
      ],
      [
        "allo",
        "w_reselec"
      ],
      [
        "(",
        "a"
      ],
      [
        ".",
        "to"
      ],
      [
        "A",
        "T"
      ],
      [
        "D",
        "E"
      ],
      [
        "F",
        "ont"
      ],
      [
        "P",
        "ack"
      ],
      [
        "[",
        "b"
      ],
      [
        "]",
        ")\r\n"
      ],
      [
        "_",
        "ut"
      ],
      [
        "_",
        "reload"
      ],
      [
        "b",
        "ackground"
      ],
      [
        "c",
        "ustom"
      ],
      [
        "d",
        "ouble"
      ],
      [
        "f",
        "8"
      ],
      [
        "i",
        "r"
      ],
      [
        "i",
        "gin"
      ],
      [
        "n",
        "ter"
      ],
      [
        "o",
        "_reload"
      ],
      [
        "r",
        "]\r\n"
      ],
      [
        "▁",
        "E"
      ],
      [
        "▁",
        "set_header_"
      ],
      [
        "re",
        "ad"
      ],
      [
        "t_",
        "tree"
      ],
      [
        "te",
        "nds"
      ],
      [
        "or",
        "igin"
      ],
      [
        "▁t",
        "ree"
      ],
      [
        "ro",
        "ot"
      ],
      [
        "al",
        "_table"
      ],
      [
        "pr",
        "ue"
      ],
      [
        "()",
        ":\r\n"
      ],
      [
        "column",
        "_"
      ],
      [
        "lo",
        "at"
      ],
      [
        "ut",
        "o_reload"
      ],
      [
        "stylebox_",
        "pressed"
      ],
      [
        "stylebox_",
        "hover"
      ],
      [
        "stylebox_",
        "normal"
      ],
      [
        "▁c",
        "on"
      ],
      [
        "com",
        "p"
      ],
      [
        "com",
        "pres"
      ],
      [
        "▁\tprint",
        "(\""
      ],
      [
        "▁header_",
        "row"
      ],
      [
        "▁[",
        "code]"
      ],
      [
        "▁0",
        ":\r\n"
      ],
      [
        "▁bite",
        "2"
      ],
      [
        "hi",
        "s"
      ],
      [
        "▁n",
        "o"
      ],
      [
        "set_table",
        "(table"
      ],
      [
        "[/",
        "code]"
      ],
      [
        "_as",
        "cending"
      ],
      [
        "▁true",
        "\r\n"
      ],
      [
        ".emit(result",
        ")\r\n"
      ],
      [
        "▁ex",
        "tends"
      ],
      [
        "Pack",
        "ed"
      ],
      [
        "[b",
        "r]\r\n"
      ],
      [
        "_ut",
        "f8"
      ],
      [
        "read",
        "y"
      ],
      [
        "origin",
        "al_table"
      ],
      [
        "\"",
        ")"
      ],
      [
        ")",
        ":\r\n"
      ],
      [
        "3",
        "2"
      ],
      [
        ":",
        "C"
      ],
      [
        ":",
        "b"
      ],
      [
        ":",
        "Font"
      ],
      [
        "C",
        "O"
      ],
      [
        "D",
        "E_"
      ],
      [
        "I",
        "ON"
      ],
      [
        "L",
        "E"
      ],
      [
        "M",
        "PR"
      ],
      [
        "S",
        "ION"
      ],
      [
        "T",
        "his"
      ],
      [
        "_",
        "pressed"
      ],
      [
        "d",
        "("
      ],
      [
        "e",
        "s"
      ],
      [
        "p",
        "ara"
      ],
      [
        "u",
        "p"
      ],
      [
        "▁",
        "I"
      ],
      [
        "▁",
        "m"
      ],
      [
        "▁",
        "Array"
      ],
      [
        "▁",
        "table_"
      ],
      [
        "▁",
        "MO"
      ],
      [
        "▁\t",
        "for"
      ],
      [
        "▁t",
        "o"
      ],
      [
        "▁t",
        "ype"
      ],
      [
        "▁f",
        "ont"
      ],
      [
        "▁f",
        "ir"
      ],
      [
        "fon",
        "t("
      ],
      [
        "ce",
        "s"
      ],
      [
        "ce",
        "ne"
      ],
      [
        "▁_",
        "ready"
      ],
      [
        "stylebox_",
        "override(\"title_button_"
      ],
      [
        "get_",
        "cell_"
      ],
      [
        "na",
        "me_"
      ],
      [
        "▁s",
        "in"
      ],
      [
        "▁p",
        "reload"
      ],
      [
        "▁de",
        "s"
      ],
      [
        "▁\ttableContainer.",
        "set_header_"
      ],
      [
        "ol",
        "or"
      ],
      [
        "▁[",
        "para"
      ],
      [
        "columns",
        ")\r\n"
      ],
      [
        "click_",
        "cell_"
      ],
      [
        "▁D",
        "e"
      ],
      [
        "ES",
        "SION"
      ],
      [
        "▁false",
        "\r\n"
      ],
      [
        "column_",
        "title"
      ],
      [
        ":C",
        "olor"
      ],
      [
        ":b",
        "ool"
      ],
      [
        "CO",
        "MPR"
      ],
      [
        "DE_",
        "COMPR"
      ],
      [
        "▁fir",
        "st"
      ],
      [
        "▁[para",
        "m"
      ],
      [
        "DE_COMPR",
        "ESSION"
      ],
      [
        "\"",
        "\r\n"
      ],
      [
        "(",
        "b"
      ],
      [
        "(",
        "pos"
      ],
      [
        ".",
        "a"
      ],
      [
        ":",
        "K"
      ],
      [
        "B",
        "A"
      ],
      [
        "B",
        "L"
      ],
      [
        "D",
        "AT"
      ],
      [
        "E",
        "BA"
      ],
      [
        "O",
        "S"
      ],
      [
        "O",
        "U"
      ],
      [
        "P",
        "E_"
      ],
      [
        "P",
        "OS"
      ],
      [
        "T",
        "_"
      ],
      [
        "T",
        ":\r\n"
      ],
      [
        "T",
        "ree"
      ],
      [
        "U",
        "EBA"
      ],
      [
        "Y",
        "PE_"
      ],
      [
        "_",
        "a"
      ],
      [
        "_",
        "on_"
      ],
      [
        "_",
        "IN"
      ],
      [
        "a",
        "te"
      ],
      [
        "a",
        "ne"
      ],
      [
        "a",
        "t("
      ],
      [
        "e",
        "n"
      ],
      [
        "f",
        "f"
      ],
      [
        "g",
        "o"
      ],
      [
        "h",
        "or"
      ],
      [
        "i",
        "s"
      ],
      [
        "i",
        "t_tree"
      ],
      [
        "l",
        "\r\n"
      ],
      [
        "l",
        "on"
      ],
      [
        "p",
        "pe"
      ],
      [
        "t",
        "n"
      ],
      [
        "u",
        "ff"
      ],
      [
        "v",
        "a"
      ],
      [
        "▁",
        "'"
      ],
      [
        "▁",
        ">"
      ],
      [
        "▁",
        "st"
      ],
      [
        "▁",
        "set_"
      ],
      [
        "▁",
        "ne"
      ],
      [
        "▁",
        "pos"
      ],
      [
        "▁",
        "Vector2i"
      ],
      [
        "▁",
        "PR"
      ],
      [
        "▁",
        "comprimido"
      ],
      [
        "▁\t",
        "table_"
      ],
      [
        "▁\t",
        "result"
      ],
      [
        "de",
        "lta"
      ],
      [
        "in",
        "d("
      ],
      [
        "se",
        ":\r\n"
      ],
      [
        "te",
        "x"
      ],
      [
        "▁f",
        "or"
      ],
      [
        "▁\t\t",
        "var"
      ],
      [
        "ra",
        "nd"
      ],
      [
        "tree.",
        "get_selected"
      ],
      [
        "nd",
        "("
      ],
      [
        "▁s",
        "cene"
      ],
      [
        "bite",
        "arr"
      ],
      [
        "t_mode",
        "_ascending"
      ],
      [
        "E_",
        "CLICK"
      ],
      [
        ".size()",
        ":\r\n"
      ],
      [
        "▁e",
        "nter"
      ],
      [
        "mit",
        "ted"
      ],
      [
        "▁_on_",
        "table_"
      ],
      [
        "▁key",
        ":K"
      ],
      [
        ".connect(",
        "_on_"
      ],
      [
        "row_",
        "index"
      ],
      [
        "CLICK_ROW",
        "_IN"
      ],
      [
        "CLICK_CELL_",
        "DAT"
      ],
      [
        "CLICK_CELL_",
        "POS"
      ],
      [
        "▁T",
        "YPE_"
      ],
      [
        "▁tim",
        "e.\r\n"
      ],
      [
        "el",
        "se:\r\n"
      ],
      [
        "allow_reselec",
        "t"
      ],
      [
        "DE",
        "X"
      ],
      [
        "custom",
        "_"
      ],
      [
        "double",
        "_click"
      ],
      [
        "▁E",
        "mitted"
      ],
      [
        "compres",
        "s("
      ],
      [
        "▁\tprint(\"",
        "This"
      ],
      [
        "▁no",
        "de"
      ],
      [
        "▁I",
        "n"
      ],
      [
        "▁type",
        "of"
      ],
      [
        ".a",
        "ppe"
      ],
      [
        "BL",
        "E_CLICK"
      ],
      [
        "OU",
        "BLE_CLICK"
      ],
      [
        "lon",
        "g"
      ],
      [
        "▁st",
        "r"
      ],
      [
        "▁PR",
        "UEBA"
      ],
      [
        "▁enter",
        "s"
      ],
      [
        "▁key:K",
        "ey"
      ],
      [
        "CLICK_ROW_IN",
        "DEX"
      ],
      [
        "CLICK_CELL_DAT",
        "A"
      ],
      [
        ".appe",
        "nd("
      ],
      [
        "(",
        "row"
      ],
      [
        "(",
        "stylebox"
      ],
      [
        ".",
        "re"
      ],
      [
        ".",
        "[br]\r\n"
      ],
      [
        ":",
        "1"
      ],
      [
        ":",
        "Tree"
      ],
      [
        "B",
        "U"
      ],
      [
        "B",
        "yte"
      ],
      [
        "E",
        "N"
      ],
      [
        "S",
        "E_"
      ],
      [
        "T",
        "T"
      ],
      [
        "U",
        "SE_"
      ],
      [
        "[",
        "i"
      ],
      [
        "_",
        "in"
      ],
      [
        "_",
        "selected"
      ],
      [
        "_",
        "override(\""
      ],
      [
        "_",
        "override(\"title_button_"
      ],
      [
        "_",
        "item"
      ],
      [
        "_",
        "root"
      ],
      [
        "a",
        "uto_reload"
      ],
      [
        "b",
        "a"
      ],
      [
        "b",
        "ytes"
      ],
      [
        "b",
        "tn"
      ],
      [
        "c",
        "adena"
      ],
      [
        "c",
        "hi"
      ],
      [
        "d",
        "y"
      ],
      [
        "e",
        "."
      ],
      [
        "f",
        "la"
      ],
      [
        "f",
        "loat"
      ],
      [
        "i",
        ")\r\n"
      ],
      [
        "i",
        "ou"
      ],
      [
        "l",
        "as"
      ],
      [
        "p",
        "ro"
      ],
      [
        "p",
        "ut"
      ],
      [
        "p",
        "sed"
      ],
      [
        "s",
        "\r\n"
      ],
      [
        "t",
        "s"
      ],
      [
        "t",
        "ro"
      ],
      [
        "u",
        "se"
      ],
      [
        "v",
        "iou"
      ],
      [
        "ó",
        "n"
      ],
      [
        "▁",
        "<"
      ],
      [
        "▁",
        "S"
      ],
      [
        "▁",
        "o"
      ],
      [
        "▁",
        "int"
      ],
      [
        "▁",
        "mo"
      ],
      [
        "▁",
        "Con"
      ],
      [
        "▁",
        "color"
      ],
      [
        "▁",
        "result"
      ],
      [
        "▁",
        "string_length"
      ],
      [
        "▁",
        "$Table."
      ],
      [
        "▁",
        "Packed"
      ],
      [
        "▁\t",
        "return"
      ],
      [
        "▁\t",
        "bite2"
      ],
      [
        "▁\t",
        "set_table(table"
      ],
      [
        "▁\t",
        "else:\r\n"
      ],
      [
        "re",
        "si"
      ],
      [
        "re",
        "viou"
      ],
      [
        "in",
        "s"
      ],
      [
        "t_",
        "btn"
      ],
      [
        "te",
        "m"
      ],
      [
        "te",
        "n"
      ],
      [
        "te",
        "s"
      ],
      [
        "ro",
        "m"
      ],
      [
        "id",
        "a"
      ],
      [
        "▁\t\t",
        "a"
      ],
      [
        "▁\t\t",
        "for"
      ],
      [
        "▁func",
        "tion"
      ],
      [
        "um",
        "(\""
      ],
      [
        "▁_",
        "pro"
      ],
      [
        "▁i",
        "t"
      ],
      [
        "▁i",
        ":int"
      ],
      [
        "()",
        ".get_"
      ],
      [
        "▁\"",
        "prue"
      ],
      [
        "ted",
        "_table"
      ],
      [
        "ver",
        "y"
      ],
      [
        "stylebox_",
        "background"
      ],
      [
        "▁c",
        "h"
      ],
      [
        "▁c",
        "ustom"
      ],
      [
        "print",
        "s("
      ],
      [
        "_b",
        "uff"
      ],
      [
        "▁a",
        "nd"
      ],
      [
        "▁a",
        "[column]"
      ],
      [
        "ack",
        "array"
      ],
      [
        "▁s",
        "or"
      ],
      [
        "▁p",
        "reviou"
      ],
      [
        "▁p",
        "ackarray"
      ],
      [
        "▁w",
        "idth"
      ],
      [
        "▁\ttableContainer.",
        "set_"
      ],
      [
        "St",
        "ring"
      ],
      [
        ":St",
        "ring"
      ],
      [
        "Table",
        "Container"
      ],
      [
        "▁e",
        "la"
      ],
      [
        "▁e",
        "very"
      ],
      [
        "_button_",
        "index"
      ],
      [
        "▁\tprints(",
        "bite2"
      ],
      [
        "comprimid",
        "a"
      ],
      [
        "font",
        ":Font"
      ],
      [
        "ON",
        "_"
      ],
      [
        "▁tree.",
        "columns)\r\n"
      ],
      [
        "sor",
        "ter"
      ],
      [
        ":StyleBox",
        ":"
      ],
      [
        "(value",
        ":StyleBox)"
      ],
      [
        "▁u",
        "sed"
      ],
      [
        "▁1",
        ","
      ],
      [
        "▁bytes",
        "\r\n"
      ],
      [
        "_de",
        "comprimida"
      ],
      [
        "▁tim",
        "e"
      ],
      [
        "▁@export_",
        "en"
      ],
      [
        ":Array[Array",
        "])"
      ],
      [
        "▁stylebox",
        ")\r\n"
      ],
      [
        "▁stylebox",
        ":\r\n"
      ],
      [
        "▁selected",
        "."
      ],
      [
        "▁tipo",
        "_b"
      ],
      [
        "▁tipo",
        "_a"
      ],
      [
        "▁--",
        "\r\n"
      ],
      [
        "▁fram",
        "e.\r\n"
      ],
      [
        "▁fram",
        "e."
      ],
      [
        "(a",
        "[column])\r\n"
      ],
      [
        ".to",
        "_utf8"
      ],
      [
        "comp",
        "resi"
      ],
      [
        "▁MO",
        "DE_COMPRESSION"
      ],
      [
        "ces",
        "s("
      ],
      [
        "▁_ready",
        "()"
      ],
      [
        "get_cell_",
        "pos"
      ],
      [
        "name_",
        "rand"
      ],
      [
        "▁sin",
        "ce"
      ],
      [
        "▁preload",
        "(\""
      ],
      [
        "▁De",
        "fla"
      ],
      [
        ":Color",
        ")"
      ],
      [
        "(b",
        "[column])\r\n"
      ],
      [
        "(pos",
        ":Vector2i"
      ],
      [
        "ane",
        "l"
      ],
      [
        "▁'",
        "delta"
      ],
      [
        "▁\tresult",
        "."
      ],
      [
        "▁TYPE_",
        "IN"
      ],
      [
        "(stylebox",
        ":StyleBox)"
      ],
      [
        ".re",
        "size"
      ],
      [
        "BU",
        "TT"
      ],
      [
        "Byte",
        "Array"
      ],
      [
        "USE_",
        "BUTT"
      ],
      [
        "chi",
        "l"
      ],
      [
        "put",
        "."
      ],
      [
        "tro",
        "l\r\n"
      ],
      [
        "use",
        "_button_index"
      ],
      [
        "▁mo",
        "use_button_index"
      ],
      [
        "▁Con",
        "trol\r\n"
      ],
      [
        "▁_pro",
        "cess("
      ],
      [
        "▁\"prue",
        "ba"
      ],
      [
        "_buff",
        "er"
      ],
      [
        "▁previou",
        "s"
      ],
      [
        "▁ela",
        "psed"
      ],
      [
        "▁\tprints(bite2",
        ","
      ],
      [
        "▁@export_en",
        "um(\""
      ],
      [
        ".to_utf8",
        "_buffer"
      ],
      [
        "compresi",
        "ón"
      ],
      [
        "name_rand",
        "om"
      ],
      [
        "▁Defla",
        "te"
      ],
      [
        "▁'delta",
        "'"
      ],
      [
        "USE_BUTT",
        "ON_"
      ],
      [
        "\"",
        "])\r\n"
      ],
      [
        "(",
        "-"
      ],
      [
        "(",
        "0"
      ],
      [
        "(",
        "t"
      ],
      [
        "(",
        "size"
      ],
      [
        "(",
        "column"
      ],
      [
        "(",
        "cell"
      ],
      [
        "(",
        "index"
      ],
      [
        ".",
        "d"
      ],
      [
        ".",
        "f"
      ],
      [
        ".",
        "de"
      ],
      [
        ".",
        "remove_"
      ],
      [
        ".",
        "compress("
      ],
      [
        "0",
        "\","
      ],
      [
        "1",
        ","
      ],
      [
        ":",
        "0\","
      ],
      [
        "A",
        "CE"
      ],
      [
        "D",
        "OUBLE_CLICK"
      ],
      [
        "E",
        "R"
      ],
      [
        "I",
        "tem"
      ],
      [
        "P",
        "ACE"
      ],
      [
        "R",
        "I"
      ],
      [
        "S",
        "PACE"
      ],
      [
        "T",
        "ER"
      ],
      [
        "[",
        "\""
      ],
      [
        "]",
        ":"
      ],
      [
        "_",
        "A"
      ],
      [
        "_",
        "column"
      ],
      [
        "_",
        "array"
      ],
      [
        "_",
        "columns"
      ],
      [
        "_",
        "dy"
      ],
      [
        "a",
        "nd"
      ],
      [
        "c",
        "ti"
      ],
      [
        "d",
        "o"
      ],
      [
        "d",
        "re"
      ],
      [
        "e",
        "ts"
      ],
      [
        "f",
        "rom"
      ],
      [
        "g",
        "f"
      ],
      [
        "g",
        "h"
      ],
      [
        "h",
        "h"
      ],
      [
        "i",
        ","
      ],
      [
        "i",
        "c"
      ],
      [
        "l",
        "u"
      ],
      [
        "l",
        "y"
      ],
      [
        "m",
        "ic"
      ],
      [
        "n",
        "()"
      ],
      [
        "p",
        "a"
      ],
      [
        "p",
        "as"
      ],
      [
        "r",
        "or"
      ],
      [
        "s",
        "hor"
      ],
      [
        "s",
        "and"
      ],
      [
        "u",
        "x"
      ],
      [
        "w",
        "_table"
      ],
      [
        "▁",
        "%"
      ],
      [
        "▁",
        "2"
      ],
      [
        "▁",
        "on"
      ],
      [
        "▁",
        "or"
      ],
      [
        "▁",
        "un"
      ],
      [
        "▁",
        "header"
      ],
      [
        "▁",
        "column"
      ],
      [
        "▁",
        "string"
      ],
      [
        "▁",
        "set_table_"
      ],
      [
        "▁",
        "KEY_"
      ],
      [
        "▁",
        "prue"
      ],
      [
        "▁",
        "original_table"
      ],
      [
        "▁\t",
        "table"
      ],
      [
        "se",
        "ed"
      ],
      [
        "ta",
        "n"
      ],
      [
        "table",
        ".size()"
      ],
      [
        "▁-",
        "1"
      ],
      [
        "set_",
        "column_title"
      ],
      [
        "row",
        "("
      ],
      [
        "row",
        ")\r\n"
      ],
      [
        "▁_",
        "in"
      ],
      [
        "pr",
        "ins"
      ],
      [
        "()",
        ")\r\n"
      ],
      [
        "▁\"",
        "--"
      ],
      [
        "▁\"",
        "prins"
      ],
      [
        "(\"",
        "Table"
      ],
      [
        "ad",
        "d"
      ],
      [
        "▁b",
        "ool"
      ],
      [
        "get_",
        "root"
      ],
      [
        "as",
        "sed"
      ],
      [
        "▁@",
        "to"
      ],
      [
        "▁a",
        "uto_reload"
      ],
      [
        "na",
        "mic"
      ],
      [
        "▁p",
        "assed"
      ],
      [
        "▁w",
        "as"
      ],
      [
        "array",
        "_"
      ],
      [
        ".size",
        "()\r\n"
      ],
      [
        "▁header_",
        "columns"
      ],
      [
        "▁header_",
        "width"
      ],
      [
        "▁row",
        "_columns"
      ],
      [
        "▁\ttableContainer.",
        "set_table_"
      ],
      [
        "▁\t\t\t",
        "prints("
      ],
      [
        "▁\ttree.",
        "item"
      ],
      [
        "remove_",
        "row_"
      ],
      [
        "remove_",
        "las"
      ],
      [
        "d_",
        "stylebox"
      ],
      [
        "ol",
        "\r\n"
      ],
      [
        "ti",
        "c"
      ],
      [
        "select_mode",
        "."
      ],
      [
        ".size()",
        ","
      ],
      [
        ".size()",
        ")\r\n"
      ],
      [
        "gro",
        "up"
      ],
      [
        "font_color",
        "("
      ],
      [
        "reload",
        "_table"
      ],
      [
        "▁table",
        ","
      ],
      [
        "▁\t\ttree.",
        "set_column_title"
      ],
      [
        "add_",
        "row("
      ],
      [
        "(table",
        ")\r\n"
      ],
      [
        "(table",
        ":Array[Array])"
      ],
      [
        ":Array[",
        "String"
      ],
      [
        "▁tree.",
        "get_selected"
      ],
      [
        "▁tree.",
        "get_root"
      ],
      [
        "ackgroun",
        "d_stylebox"
      ],
      [
        "rue",
        ")\r\n"
      ],
      [
        "sor",
        "t_mode_ascending"
      ],
      [
        "sor",
        "ted_table"
      ],
      [
        "▁array",
        "_"
      ],
      [
        "click_",
        "row_index"
      ],
      [
        "string_",
        "from"
      ],
      [
        "▁u",
        "sand"
      ],
      [
        "▁key",
        ")\r\n"
      ],
      [
        "set_table",
        "("
      ],
      [
        "▁1",
        "\r\n"
      ],
      [
        "▁cell",
        ":"
      ],
      [
        "▁bytes",
        ":\r\n"
      ],
      [
        "▁cadena",
        ".to_utf8_buffer"
      ],
      [
        "▁\t\t\t\t",
        "\t"
      ],
      [
        "_de",
        "lta"
      ],
      [
        "▁@export_",
        "group"
      ],
      [
        "▁\ttree.remove_theme_",
        "stylebox_override(\"title_button_"
      ],
      [
        "▁\t\ttree.add_theme_",
        "stylebox_override(\"title_button_"
      ],
      [
        ".get_",
        "string_from"
      ],
      [
        "_click",
        "ed"
      ],
      [
        "data",
        ")\r\n"
      ],
      [
        "allow_reselec",
        "t("
      ],
      [
        "▁[code]",
        "KEY_"
      ],
      [
        "[/code]",
        "[br]\r\n"
      ],
      [
        "32",
        "float"
      ],
      [
        "LE",
        "F"
      ],
      [
        "_pressed",
        "():\r\n"
      ],
      [
        "▁Array",
        "("
      ],
      [
        "column_title",
        "_clicked"
      ],
      [
        ":bool",
        ")"
      ],
      [
        "ind(",
        "tree.get_selected"
      ],
      [
        "tex",
        "t("
      ],
      [
        ".append(",
        "[\""
      ],
      [
        "(row",
        ":Array"
      ],
      [
        ":Tree",
        "Item"
      ],
      [
        "EN",
        "TER"
      ],
      [
        "cadena",
        "_decomprimida"
      ],
      [
        "▁S",
        "ets"
      ],
      [
        "▁\tset_table(table",
        ")\r\n"
      ],
      [
        "().get_",
        "chil"
      ],
      [
        "▁ch",
        "ar"
      ],
      [
        ".resize",
        "(header_"
      ],
      [
        "▁_process(",
        "_delta"
      ],
      [
        "(-",
        "1,"
      ],
      [
        "(0",
        ","
      ],
      [
        "(t",
        "rue)\r\n"
      ],
      [
        "(cell",
        ":String"
      ],
      [
        ".f",
        "ind(tree.get_selected"
      ],
      [
        ".remove_",
        "at("
      ],
      [
        "_dy",
        "namic"
      ],
      [
        "dre",
        "n()"
      ],
      [
        "lu",
        "gin"
      ],
      [
        "shor",
        "t"
      ],
      [
        "▁prue",
        "va"
      ],
      [
        "▁\"--",
        "--"
      ],
      [
        "▁bool",
        ":\r\n"
      ],
      [
        "▁@to",
        "ol\r\n"
      ],
      [
        "▁\t\t\tprints(",
        "i)\r\n"
      ],
      [
        "▁tree.get_root",
        "().get_chil"
      ],
      [
        "▁usand",
        "o"
      ],
      [
        "▁cadena.to_utf8_buffer",
        "()\r\n"
      ],
      [
        ".get_string_from",
        "_utf8"
      ],
      [
        ".find(tree.get_selected",
        "())\r\n"
      ],
      [
        "dren()",
        ".find(tree.get_selected())\r\n"
      ],
      [
        "▁tree.get_root().get_chil",
        "dren().find(tree.get_selected())\r\n"
      ],
      [
        "\"",
        ":\r\n"
      ],
      [
        "\"",
        "]\r\n"
      ],
      [
        "$",
        "B"
      ],
      [
        "$",
        "index"
      ],
      [
        "(",
        "KEY_"
      ],
      [
        "(",
        "bitearr"
      ],
      [
        "(",
        "custom_"
      ],
      [
        "(",
        "i,"
      ],
      [
        ".",
        "b"
      ],
      [
        ".",
        "s"
      ],
      [
        ".",
        "sor"
      ],
      [
        ".",
        "length"
      ],
      [
        "/",
        "/"
      ],
      [
        "/",
        "go"
      ],
      [
        "/",
        "TableContainer"
      ],
      [
        "2",
        "2"
      ],
      [
        ":",
        "3"
      ],
      [
        ":",
        "select_mode"
      ],
      [
        ":",
        "[/"
      ],
      [
        ":",
        "Packed"
      ],
      [
        ":",
        "//"
      ],
      [
        "=",
        "y"
      ],
      [
        "A",
        "D"
      ],
      [
        "A",
        "Y"
      ],
      [
        "A",
        "nd"
      ],
      [
        "A",
        ":1"
      ],
      [
        "C",
        "T_"
      ],
      [
        "E",
        "LE"
      ],
      [
        "E",
        ":1"
      ],
      [
        "F",
        "L"
      ],
      [
        "F",
        "loat"
      ],
      [
        "G",
        "H"
      ],
      [
        "G",
        "Z"
      ],
      [
        "I",
        "P"
      ],
      [
        "I",
        "m"
      ],
      [
        "L",
        "a"
      ],
      [
        "N",
        "O"
      ],
      [
        "N",
        "ON"
      ],
      [
        "N",
        "AD"
      ],
      [
        "P",
        "anel"
      ],
      [
        "R",
        "R"
      ],
      [
        "R",
        "e"
      ],
      [
        "S",
        "T"
      ],
      [
        "S",
        "ELE"
      ],
      [
        "Y",
        "ES"
      ],
      [
        "[",
        "pos"
      ],
      [
        "]",
        "Im"
      ],
      [
        "_",
        "g"
      ],
      [
        "_",
        "cell"
      ],
      [
        "_",
        "string"
      ],
      [
        "_",
        "key"
      ],
      [
        "_",
        "double_click"
      ],
      [
        "_",
        "tes"
      ],
      [
        "_",
        "sorter"
      ],
      [
        "_",
        "seed"
      ],
      [
        "a",
        "ult"
      ],
      [
        "a",
        "ter"
      ],
      [
        "b",
        "[column]"
      ],
      [
        "b",
        "ten"
      ],
      [
        "c",
        "h"
      ],
      [
        "c",
        "i"
      ],
      [
        "c",
        "l"
      ],
      [
        "c",
        "re"
      ],
      [
        "c",
        "ate"
      ],
      [
        "c",
        "ida"
      ],
      [
        "d",
        "s"
      ],
      [
        "f",
        "ault"
      ],
      [
        "g",
        "d"
      ],
      [
        "h",
        "as"
      ],
      [
        "j",
        "k"
      ],
      [
        "k",
        "f"
      ],
      [
        "l",
        "_item"
      ],
      [
        "m",
        "at"
      ],
      [
        "n",
        "ge"
      ],
      [
        "o",
        "cida"
      ],
      [
        "p",
        "anel"
      ],
      [
        "s",
        "ar"
      ],
      [
        "s",
        "cending"
      ],
      [
        "s",
        "/go"
      ],
      [
        "t",
        "ype"
      ],
      [
        "t",
        ":[/"
      ],
      [
        "u",
        "d"
      ],
      [
        "u",
        "s"
      ],
      [
        "v",
        "e"
      ],
      [
        "v",
        "g"
      ],
      [
        "w",
        "]Im"
      ],
      [
        "y",
        "_seed"
      ],
      [
        "▁",
        "!"
      ],
      [
        "▁",
        "+"
      ],
      [
        "▁",
        "y"
      ],
      [
        "▁",
        "he"
      ],
      [
        "▁",
        ":\r\n"
      ],
      [
        "▁",
        "co"
      ],
      [
        "▁",
        "po"
      ],
      [
        "▁",
        "get_"
      ],
      [
        "▁",
        "remov"
      ],
      [
        "▁",
        "da"
      ],
      [
        "▁",
        "CLICK_ROW"
      ],
      [
        "▁",
        "double"
      ],
      [
        "▁",
        "name_"
      ],
      [
        "▁",
        "go"
      ],
      [
        "▁",
        "tex"
      ],
      [
        "▁",
        "CLICK_CELL_POS"
      ],
      [
        "▁",
        "long"
      ],
      [
        "▁",
        "CLICK_ROW_INDEX"
      ],
      [
        "▁",
        "CLICK_CELL_DATA"
      ],
      [
        "▁",
        "get_cell_pos"
      ],
      [
        "▁",
        "compresión"
      ],
      [
        "▁",
        "reload_table"
      ],
      [
        "▁",
        "$B"
      ],
      [
        "▁",
        "Re"
      ],
      [
        "▁\t",
        "a"
      ],
      [
        "▁\t",
        "bite"
      ],
      [
        "▁\t",
        "tree"
      ],
      [
        "▁\t",
        "CLICK_ROW"
      ],
      [
        "▁\t",
        "string_length"
      ],
      [
        "▁\t",
        "$Table."
      ],
      [
        "▁\t",
        "background"
      ],
      [
        "▁\t",
        "bitearr"
      ],
      [
        "▁\t",
        "CLICK_CELL_POS"
      ],
      [
        "▁\t",
        "CLICK_ROW_INDEX"
      ],
      [
        "▁\t",
        "CLICK_CELL_DATA"
      ],
      [
        "▁\t",
        "bytes"
      ],
      [
        "▁\t",
        "name_random"
      ],
      [
        "▁\t",
        "DOUBLE_CLICK"
      ],
      [
        "▁\t",
        "pas"
      ],
      [
        "le",
        "tes"
      ],
      [
        "re",
        ".\r\n"
      ],
      [
        "re",
        "ater"
      ],
      [
        "in",
        "im"
      ],
      [
        "ta",
        "tic"
      ],
      [
        "on",
        "s/go"
      ],
      [
        "t_",
        "row"
      ],
      [
        "t_",
        "custom"
      ],
      [
        "or",
        "_g"
      ],
      [
        "table",
        ".remove_at("
      ],
      [
        "▁t",
        "u"
      ],
      [
        "ade",
        "d"
      ],
      [
        "al",
        "i"
      ],
      [
        "al",
        "ida"
      ],
      [
        "▁\t\t",
        "\r\n"
      ],
      [
        "▁\t\t",
        "print"
      ],
      [
        "▁\t\t",
        "tableContainer."
      ],
      [
        "▁\t\t",
        "key"
      ],
      [
        "▁\t\t",
        "select_mode."
      ],
      [
        "▁\t\t",
        "b[column]"
      ],
      [
        "▁\t\t",
        "table.remove_at("
      ],
      [
        "ra",
        "nge"
      ],
      [
        "si",
        "tion"
      ],
      [
        "er",
        "ror"
      ],
      [
        "header",
        "(header_"
      ],
      [
        "set_",
        "select_mode"
      ],
      [
        "set_",
        "stylebox_background"
      ],
      [
        "▁the",
        "n"
      ],
      [
        "row",
        ".resize(header_"
      ],
      [
        "▁_",
        "set_stylebox_background"
      ],
      [
        "ree.",
        "SELE"
      ],
      [
        "()",
        "#"
      ],
      [
        "column",
        "))\r\n"
      ],
      [
        "▁\"",
        "bite"
      ],
      [
        "▁\"",
        "is"
      ],
      [
        "▁\"",
        "GZ"
      ],
      [
        "▁\"",
        "NO"
      ],
      [
        "▁\"",
        "or_g"
      ],
      [
        "res",
        "://"
      ],
      [
        "(\"",
        "La"
      ],
      [
        "font_",
        "override(\""
      ],
      [
        "font_",
        "override(\"title_button_"
      ],
      [
        "it",
        "ud"
      ],
      [
        "▁b",
        ","
      ],
      [
        "▁b",
        "e"
      ],
      [
        "▁b",
        "o"
      ],
      [
        "▁b",
        "[column]"
      ],
      [
        "▁b",
        "22"
      ],
      [
        "table_",
        "select_mode"
      ],
      [
        "lo",
        "w]Im"
      ],
      [
        "on_",
        "column_title_clicked"
      ],
      [
        "stylebox_",
        "override(\""
      ],
      [
        "ne",
        "w"
      ],
      [
        "ne",
        "w_"
      ],
      [
        "color",
        "]"
      ],
      [
        "color",
        "_override(\""
      ],
      [
        "color",
        "_override(\"title_button_"
      ],
      [
        "color",
        ":Color)"
      ],
      [
        "color",
        "=y"
      ],
      [
        "▁c",
        "lick"
      ],
      [
        "▁c",
        "an"
      ],
      [
        "po",
        "s("
      ],
      [
        ":int",
        ","
      ],
      [
        ":int",
        ":"
      ],
      [
        ":int",
        ")\r\n"
      ],
      [
        "_b",
        "yte"
      ],
      [
        "▁a",
        "cti"
      ],
      [
        "tableContainer.",
        "set_select_mode"
      ],
      [
        "li",
        "cate"
      ],
      [
        "por",
        "tan"
      ],
      [
        ":Array",
        ")"
      ],
      [
        ":Array",
        "\r\n"
      ],
      [
        "▁s",
        "hor"
      ],
      [
        "▁s",
        "tatic"
      ],
      [
        "▁s",
        "alida"
      ],
      [
        "bite",
        ","
      ],
      [
        "bite",
        ")\r\n"
      ],
      [
        "the",
        "r"
      ],
      [
        "ri",
        "z"
      ],
      [
        "▁p",
        "es"
      ],
      [
        "▁p",
        "lugin"
      ],
      [
        "▁de",
        "comp"
      ],
      [
        "▁de",
        "fault"
      ],
      [
        "selected",
        ".connect("
      ],
      [
        "font_size",
        "\r\n"
      ],
      [
        "font_size",
        ")\r\n"
      ],
      [
        "font_size",
        "\","
      ],
      [
        "font_size",
        "\")\r\n"
      ],
      [
        "font_size",
        "(value"
      ],
      [
        "font_size",
        "_override(\""
      ],
      [
        "font_size",
        "_override(\"title_button_"
      ],
      [
        "font_size",
        "(size"
      ],
      [
        "font_size",
        ":int:"
      ],
      [
        "▁header_",
        "size"
      ],
      [
        "▁\t\t\t",
        "MO"
      ],
      [
        "▁\t\t\t",
        "row.resize(header_"
      ],
      [
        "▁\t\t\t",
        "tableContainer.set_select_mode"
      ],
      [
        "▁\ttree.",
        "cell_"
      ],
      [
        "_table",
        "/TableContainer"
      ],
      [
        "ed",
        "\")\r\n"
      ],
      [
        "▁[",
        "color=y"
      ],
      [
        "to",
        "s"
      ],
      [
        "to",
        "_string"
      ],
      [
        "value",
        ":Font"
      ],
      [
        "▁0",
        "\r\n"
      ],
      [
        "▁e",
        "n"
      ],
      [
        "▁_set_header_",
        "row"
      ],
      [
        "▁_set_header_",
        "font_color"
      ],
      [
        "▁_set_header_",
        "width"
      ],
      [
        "▁_set_header_",
        "stylebox_pressed"
      ],
      [
        "▁_set_header_",
        "stylebox_hover"
      ],
      [
        "▁_set_header_",
        "stylebox_normal"
      ],
      [
        "font_color",
        ")\r\n"
      ],
      [
        "font_color",
        ":Color"
      ],
      [
        "▁\tprints(",
        "comprimido"
      ],
      [
        "▁\tprints(",
        "string_length"
      ],
      [
        "▁\tprints(",
        "bytes"
      ],
      [
        "▁\tprints(",
        "cl"
      ],
      [
        "▁\tprints(",
        "bite,"
      ],
      [
        "▁table",
        ".size()"
      ],
      [
        "▁table",
        ".size():\r\n"
      ],
      [
        "▁\t\ttree.",
        "select_mode"
      ],
      [
        "font",
        "\r\n"
      ],
      [
        "font",
        ")\r\n"
      ],
      [
        "font",
        "\","
      ],
      [
        "font",
        "\")\r\n"
      ],
      [
        "▁_on_",
        "click_cell_"
      ],
      [
        ":Array[",
        "int"
      ],
      [
        "CELL",
        "[/code]"
      ],
      [
        "▁tree.",
        "cre"
      ],
      [
        "▁bite",
        ".to"
      ],
      [
        "click_",
        "row"
      ],
      [
        "(value",
        ":Color)"
      ],
      [
        "at",
        "riz"
      ],
      [
        "▁n",
        "ot"
      ],
      [
        "▁u",
        "se"
      ],
      [
        "▁u",
        "an"
      ],
      [
        "▁\t#",
        "var"
      ],
      [
        ".connect(",
        "get_"
      ],
      [
        "MO",
        "DE_COMPRESSION"
      ],
      [
        "width",
        "(column"
      ],
      [
        "▁size",
        ")\r\n"
      ],
      [
        "reselec",
        "t"
      ],
      [
        "▁_set_table_",
        "select_mode"
      ],
      [
        "▁_set_table_",
        "font_color"
      ],
      [
        "▁bytes",
        ".compress("
      ],
      [
        "▁cadena",
        "\r\n"
      ],
      [
        "▁cadena",
        ".length"
      ],
      [
        "▁\t\t\t\t",
        "if"
      ],
      [
        "▁\t\t\t\t",
        "sort_mode_ascending"
      ],
      [
        "▁\t\t\t\t",
        "set_table("
      ],
      [
        "_de",
        "scending"
      ],
      [
        "_as",
        "ci"
      ],
      [
        "▁D",
        "OUBLE_CLICK"
      ],
      [
        "▁T",
        "ree.SELE"
      ],
      [
        "▁index",
        ")\r\n"
      ],
      [
        "▁\theader_",
        "width"
      ],
      [
        "▁@export_",
        "range"
      ],
      [
        ":Array[Array",
        "]"
      ],
      [
        ":Array[Array",
        "]\r\n"
      ],
      [
        ".emit(result",
        ","
      ],
      [
        "el",
        "low]Im"
      ],
      [
        "arr",
        ":"
      ],
      [
        "data",
        "()"
      ],
      [
        "(a",
        ","
      ],
      [
        "AT",
        "E:1"
      ],
      [
        "DE",
        "FL"
      ],
      [
        "t_tree",
        "_table/TableContainer"
      ],
      [
        "compres",
        "s"
      ],
      [
        "▁header_row",
        ".size()\r\n"
      ],
      [
        "▁[code]",
        "table_select_mode"
      ],
      [
        "▁[code]",
        "CELL[/code]"
      ],
      [
        "set_table(table",
        ","
      ],
      [
        "32",
        "Array"
      ],
      [
        "_pressed",
        "(KEY_"
      ],
      [
        "up",
        "licate"
      ],
      [
        "▁m",
        "atriz"
      ],
      [
        "▁table_",
        "select_mode"
      ],
      [
        "▁MO",
        "USE_BUTTON_"
      ],
      [
        "▁font",
        ")\r\n"
      ],
      [
        "▁font",
        ":\r\n"
      ],
      [
        "font(",
        "font:Font"
      ],
      [
        "font(",
        "value:Font"
      ],
      [
        "ces",
        "sar"
      ],
      [
        "▁preload",
        "_"
      ],
      [
        "▁des",
        "comprimido"
      ],
      [
        "▁des",
        "compresión"
      ],
      [
        "▁De",
        "letes"
      ],
      [
        "T_",
        "NAD"
      ],
      [
        "ate",
        "_item"
      ],
      [
        "is",
        "_key"
      ],
      [
        "it_tree",
        "()"
      ],
      [
        "it_tree",
        "()\r\n"
      ],
      [
        "▁>",
        "="
      ],
      [
        "▁ne",
        "w_table"
      ],
      [
        "▁ne",
        "cessar"
      ],
      [
        "▁pos",
        "]"
      ],
      [
        "▁pos",
        ")\r\n"
      ],
      [
        "▁Vector2i",
        "(-1,"
      ],
      [
        "▁comprimido",
        ".de"
      ],
      [
        "ind(",
        "column))\r\n"
      ],
      [
        "▁_on_table_",
        "click_cell_"
      ],
      [
        ".connect(_on_",
        "click_cell_"
      ],
      [
        "custom_",
        "type"
      ],
      [
        "▁In",
        "put."
      ],
      [
        "▁typeof",
        "(a[column])\r\n"
      ],
      [
        "▁typeof",
        "(b[column])\r\n"
      ],
      [
        "▁str",
        "(a[column])\r\n"
      ],
      [
        "▁str",
        "(b[column])\r\n"
      ],
      [
        "▁PRUEBA",
        ":"
      ],
      [
        "▁key:Key",
        ")"
      ],
      [
        "▁key:Key",
        ")\r\n"
      ],
      [
        "[i",
        "])\r\n"
      ],
      [
        "_in",
        "put."
      ],
      [
        "_in",
        "it_tree()\r\n"
      ],
      [
        "_selected",
        "_cell"
      ],
      [
        "_selected",
        ".connect(get_"
      ],
      [
        "auto_reload",
        "_tes"
      ],
      [
        "▁o",
        "bten"
      ],
      [
        "▁color",
        ")\r\n"
      ],
      [
        "▁color",
        ":\r\n"
      ],
      [
        "▁result",
        ":Vector2i"
      ],
      [
        "▁string_length",
        "\r\n"
      ],
      [
        "▁Packed",
        "ByteArray"
      ],
      [
        "▁Packed",
        "Float"
      ],
      [
        "t_btn",
        "_pressed():\r\n"
      ],
      [
        "ten",
        "s"
      ],
      [
        "▁\t\ta",
        "[column]"
      ],
      [
        "▁\t\ta",
        ".append([\""
      ],
      [
        "▁function",
        "s"
      ],
      [
        "▁custom",
        "_sorter"
      ],
      [
        "▁sor",
        "t_mode_ascending"
      ],
      [
        "▁packarray",
        "32float"
      ],
      [
        "font:Font",
        ":"
      ],
      [
        "▁used",
        "\r\n"
      ],
      [
        "▁MODE_COMPRESSION",
        ":"
      ],
      [
        "▁MODE_COMPRESSION",
        ")\r\n"
      ],
      [
        "▁preload(\"",
        "res://"
      ],
      [
        "(pos:Vector2i",
        ","
      ],
      [
        "(pos:Vector2i",
        ")\r\n"
      ],
      [
        "▁\tresult.",
        "x"
      ],
      [
        "▁\tresult.",
        "y"
      ],
      [
        "▁TYPE_IN",
        "T"
      ],
      [
        "▁TYPE_IN",
        "T:\r\n"
      ],
      [
        "▁@export_enum(\"",
        "YES"
      ],
      [
        "▁Deflate",
        ","
      ],
      [
        "▁Deflate",
        "\r\n"
      ],
      [
        "(index",
        ":int)\r\n"
      ],
      [
        ".d",
        "uplicate"
      ],
      [
        "RI",
        "GH"
      ],
      [
        "_A",
        "RR"
      ],
      [
        "_column",
        "()\r\n"
      ],
      [
        "_array",
        "()\r\n"
      ],
      [
        "do",
        "t_tree_table/TableContainer"
      ],
      [
        "gf",
        "j"
      ],
      [
        "▁%",
        "d"
      ],
      [
        "▁on",
        "ly"
      ],
      [
        "▁column",
        ":int)"
      ],
      [
        "▁-1",
        ")\r\n"
      ],
      [
        "▁_in",
        "it_tree()"
      ],
      [
        "(\"Table",
        "\")\r\n"
      ],
      [
        "add",
        "ons/go"
      ],
      [
        "▁header_columns",
        ":\r\n"
      ],
      [
        "▁\ttree.item",
        "_selected.connect(get_"
      ],
      [
        "remove_row_",
        "at("
      ],
      [
        "remove_las",
        "t_row"
      ],
      [
        "font_color(",
        "color:Color)"
      ],
      [
        "add_row(",
        "array_"
      ],
      [
        ":Array[String",
        "])"
      ],
      [
        "▁tree.get_selected",
        "_column()\r\n"
      ],
      [
        "sorted_table",
        ".sor"
      ],
      [
        "▁\t\t\t\t\t",
        "sorted_table.sor"
      ],
      [
        "▁@export_group",
        "(\""
      ],
      [
        "LEF",
        "T"
      ],
      [
        "▁Array(",
        "bite)\r\n"
      ],
      [
        "(row:Array",
        ")\r\n"
      ],
      [
        "cadena_decomprimida",
        ")\r\n"
      ],
      [
        "▁char",
        "_asci"
      ],
      [
        "▁_process(_delta",
        ")"
      ],
      [
        "(cell:String",
        ")\r\n"
      ],
      [
        "▁\"----",
        "\":\r\n"
      ],
      [
        ".get_string_from_utf8",
        "()\r\n"
      ],
      [
        "$index",
        "_input."
      ],
      [
        "(bitearr",
        ")\r\n"
      ],
      [
        "(custom_",
        "sorter"
      ],
      [
        ".b",
        "ind(column))\r\n"
      ],
      [
        "AY",
        ":0\","
      ],
      [
        "A:1",
        "\")"
      ],
      [
        "IP",
        ":3"
      ],
      [
        "NON",
        "E"
      ],
      [
        "Panel",
        "Container"
      ],
      [
        "[pos",
        "."
      ],
      [
        "mat",
        "ch"
      ],
      [
        "ocida",
        "\r\n"
      ],
      [
        "t:[/",
        "color]"
      ],
      [
        "▁he",
        "re.\r\n"
      ],
      [
        "▁co",
        "un"
      ],
      [
        "▁po",
        "sition"
      ],
      [
        "▁remov",
        "ed\")\r\n"
      ],
      [
        "▁da",
        "tos"
      ],
      [
        "▁CLICK_ROW",
        "(row:Array)\r\n"
      ],
      [
        "▁name_",
        "sed"
      ],
      [
        "▁go",
        "es"
      ],
      [
        "▁tex",
        "t"
      ],
      [
        "▁CLICK_CELL_POS",
        "(pos:Vector2i)\r\n"
      ],
      [
        "▁long",
        "itud"
      ],
      [
        "▁CLICK_ROW_INDEX",
        "(index:int)\r\n"
      ],
      [
        "▁CLICK_CELL_DATA",
        "(cell:String)\r\n"
      ],
      [
        "▁compresión",
        ","
      ],
      [
        "▁$B",
        "ackground"
      ],
      [
        "▁\tCLICK_ROW",
        ".emit(result)\r\n"
      ],
      [
        "▁\tCLICK_CELL_POS",
        ".emit(result)\r\n"
      ],
      [
        "▁\tCLICK_ROW_INDEX",
        ".emit(result)\r\n"
      ],
      [
        "▁\tDOUBLE_CLICK",
        ".emit(result,"
      ],
      [
        "▁\tpas",
        "s\r\n"
      ],
      [
        "reater",
        "\")"
      ],
      [
        "inim",
        "um"
      ],
      [
        "t_custom",
        "(custom_sorter"
      ],
      [
        "▁\t\tprint",
        "(\"La"
      ],
      [
        "▁\"GZ",
        "IP:3"
      ],
      [
        "▁\"NO",
        "T_NAD"
      ],
      [
        "▁\"or_g",
        "reater\")"
      ],
      [
        "▁b[column]",
        ":\r\n"
      ],
      [
        "stylebox_override(\"",
        "panel"
      ],
      [
        "color_override(\"",
        "font_color"
      ],
      [
        "color_override(\"title_button_",
        "color"
      ],
      [
        "▁click",
        "ed"
      ],
      [
        "_byte",
        "_array()\r\n"
      ],
      [
        "portan",
        "t:[/color]"
      ],
      [
        "▁shor",
        "tens"
      ],
      [
        "▁pes",
        "a"
      ],
      [
        "▁decomp",
        "_dynamic"
      ],
      [
        "font_size(value",
        ":int)"
      ],
      [
        "font_size(size",
        ":int)"
      ],
      [
        "▁\t\t\tMO",
        "USE_BUTTON_"
      ],
      [
        "▁\t\t\trow.resize(header_",
        "columns)\r\n"
      ],
      [
        "▁\ttree.cell_",
        "selected.connect("
      ],
      [
        "▁[color=y",
        "ellow]Im"
      ],
      [
        "to_string",
        "("
      ],
      [
        "font_color:Color",
        ":"
      ],
      [
        "▁\tprints(comprimido",
        ".size(),"
      ],
      [
        "▁tree.cre",
        "ate_item"
      ],
      [
        "▁bite.to",
        "_byte_array()\r\n"
      ],
      [
        "▁uan",
        "to"
      ],
      [
        "MODE_COMPRESSION",
        ")\r\n"
      ],
      [
        "▁bytes.compress(",
        "MODE_COMPRESSION)\r\n"
      ],
      [
        "▁cadena.length",
        "()\r\n"
      ],
      [
        "▁DOUBLE_CLICK",
        "(pos:Vector2i,"
      ],
      [
        "▁Tree.SELE",
        "CT_"
      ],
      [
        "▁@export_range",
        "(0,"
      ],
      [
        "ATE:1",
        "\","
      ],
      [
        "DEFL",
        "ATE:1\","
      ],
      [
        "▁[code]table_select_mode",
        "[/code]"
      ],
      [
        "▁[code]CELL[/code]",
        ".\r\n"
      ],
      [
        "font(font:Font",
        ")"
      ],
      [
        "font(value:Font",
        ")"
      ],
      [
        "is_key",
        "_pressed(KEY_"
      ],
      [
        "▁necessar",
        "y"
      ],
      [
        "▁Input.",
        "is_key_pressed(KEY_"
      ],
      [
        "auto_reload_tes",
        "t_btn"
      ],
      [
        "▁obten",
        "er"
      ],
      [
        "▁PackedFloat",
        "32Array"
      ],
      [
        "▁packarray32float",
        "\")\r\n"
      ],
      [
        "▁preload(\"res://",
        "addons/go"
      ],
      [
        "▁@export_enum(\"YES",
        "_ARR"
      ],
      [
        ".duplicate",
        "(true)\r\n"
      ],
      [
        "RIGH",
        "T:\r\n"
      ],
      [
        "dot_tree_table/TableContainer",
        "."
      ],
      [
        "▁\t\t\t\t\tsorted_table.sor",
        "t_custom(custom_sorter"
      ],
      [
        "▁char_asci",
        "i"
      ],
      [
        "▁\t\tprint(\"La",
        "st"
      ],
      [
        "▁\"NOT_NAD",
        "A:1\")"
      ],
      [
        "▁[color=yellow]Im",
        "portant:[/color]"
      ],
      [
        "▁preload(\"res://addons/go",
        "dot_tree_table/TableContainer."
      ],
      [
        "▁@export_enum(\"YES_ARR",
        "AY:0\","
      ]
    ]
  }
}